[PAD]
[UNK]
[CLS]
[SEP]
[MASK]
!
"
#
$
%
&
'
(
)
*
+
,
-
.
/
0
1
2
3
4
5
6
7
8
9
:
;
<
=
>
?
@
A
B
C
D
E
F
G
H
I
J
K
L
M
N
O
P
Q
R
S
T
U
V
W
X
Y
Z
[
]
^
_
`
a
b
c
d
e
f
g
h
i
j
k
l
m
n
o
p
q
r
s
t
u
v
w
x
y
z
{
|
}
~
²
´
·
×
é
а
е
и
н
о
р
с
т
ᆞ
—
―
‘
’
“
”
•
․
‥
…
‧
※
℃
ℓ
Ⅰ
Ⅱ
Ⅲ
↑
→
∙
∼
≪
≫
⊙
①
②
③
④
⑤
⑥
⑦
─
━
│
■
□
▲
△
▶
▷
▼
◆
◇
◈
○
●
★
☆
☞
♀
♡
♥
✔
✨
❤
⠀
〈
〉
《
》
「
」
『
』
【
】
〔
〕
の
・
ㄱ
ㄴ
ㄷ
ㄹ
ㅁ
ㅂ
ㅅ
ㅇ
ㅈ
ㅋ
ㅌ
ㅎ
ㅏ
ㅜ
ㅠ
ㅡ
ㅣ
ㅤ
ㆍ
㈜
㎎
㎏
㎖
㎜
㎝
㎞
㎡
㎢
㎥
㎾
㏊
一
七
三
上
下
不
世
中
主
之
九
也
事
二
五
京
人
仁
代
以
任
佛
作
使
來
例
保
信
修
傳
債
元
先
光
入
內
全
八
公
共
兵
其
典
出
分
判
別
利
制
則
前
力
動
務
化
北
十
南
原
反
受
口
古
可
史
司
合
吉
同
名
君
告
周
命
和
員
商
問
善
四
國
圖
土
在
地
城
基
堂
報
場
士
外
多
大
天
太
夫
契
女
如
子
字
孫
學
安
宗
官
定
宮
害
家
富
實
寺
將
對
小
山
島
川
州
己
市
帝
師
常
平
年
府
度
廣
式
張
强
形
後
得
德
心
志
思
性
情
惡
想
意
愛
憲
成
我
戰
所
手
擧
支
政
故
效
敎
數
文
新
方
於
族
日
明
春
是
時
曰
書
會
月
有
朝
期
木
未
本
朴
村
東
林
株
條
業
機
權
歌
正
此
武
死
母
氏
民
氣
水
求
江
決
河
治
法
海
淸
漢
濟
火
無
然
爲
父
物
獨
王
現
理
生
産
用
田
由
甲
男
界
異
當
發
白
百
的
相
眞
知
石
硏
社
祖
神
福
禮
私
究
空
立
章
第
節
約
統
經
美
義
者
而
聖
能
臣
自
至
與
色
花
英
華
萬
處
行
表
裁
西
要
見
規
親
觀
解
言
記
註
詩
語
說
論
證
議
資
身
車
軍
近
通
運
過
道
選
郞
部
都
鄭
重
野
金
銀
錄
長
門
開
間
關
限
院
陽
集
雲
靑
非
面
韓
風
食
馬
體
高
鮮
黃
黨
龍
가
각
간
갇
갈
감
갑
값
갓
갔
강
갖
같
갚
갛
개
객
갠
갤
갯
갱
갸
걀
걍
걔
거
걱
건
걷
걸
검
겁
것
겄
겉
게
겐
겔
겟
겠
겨
격
겪
견
결
겸
겹
겼
경
곁
계
고
곡
곤
곧
골
곰
곱
곳
공
곶
과
곽
관
괄
괌
광
괘
괜
괴
굉
교
구
국
군
굳
굴
굵
굶
굽
굿
궁
궂
궈
권
궐
궤
귀
귄
귓
규
균
귤
그
극
근
글
긁
금
급
긋
긍
기
긴
길
김
깁
깃
깅
깊
까
깍
깎
깐
깔
깜
깝
깡
깥
깨
깬
깻
꺼
꺽
꺾
껄
껌
껍
껏
껑
께
껴
꼈
꼬
꼭
꼴
꼼
꼽
꼿
꽁
꽂
꽃
꽉
꽝
꽤
꾀
꾸
꾹
꾼
꿀
꿇
꿈
꿋
꿍
꿔
꿨
꿰
뀌
뀐
뀔
끄
끈
끊
끌
끓
끔
끗
끙
끝
끼
끽
낀
낄
낌
나
낙
낚
난
날
낡
남
납
낫
났
낭
낮
낯
낱
낳
내
낸
낼
냄
냅
냇
냈
냉
냐
냠
냥
너
넉
넋
넌
널
넓
넘
넛
넣
네
넥
넨
넬
넷
넸
넹
녀
녁
년
념
녔
녕
녘
노
녹
논
놀
놈
농
높
놓
놔
놨
뇌
뇨
누
눅
눈
눌
눔
눕
눠
눴
뉘
뉜
뉴
늄
늉
느
늑
는
늘
늙
늠
능
늦
늪
늬
니
닉
닌
닐
님
닙
닛
닝
다
닥
닦
단
닫
달
닭
닮
닳
담
답
닷
당
닿
대
댁
댄
댈
댐
댓
댔
댕
더
덕
던
덜
덟
덤
덥
덧
덩
덫
덮
데
덱
덴
델
뎅
뎌
도
독
돈
돋
돌
돔
돕
돗
동
돼
됐
되
된
될
됨
됩
두
둑
둔
둘
둠
둡
둥
둬
뒀
뒤
뒷
뒹
듀
듈
드
득
든
듣
들
듬
듭
듯
등
디
딕
딘
딛
딜
딤
딥
딧
딩
딪
따
딱
딴
딸
땀
땄
땅
때
땐
땜
땠
땡
떠
떡
떤
떨
떳
떴
떻
떼
뗄
또
똑
똘
똥
뚜
뚝
뚤
뚫
뚱
뛰
뛴
뛸
뜨
뜩
뜬
뜯
뜰
뜸
뜻
띄
띈
띔
띠
띤
라
락
란
랄
람
랍
랏
랐
랑
랗
래
랙
랜
랠
램
랩
랫
랬
랭
랴
략
량
러
럭
런
럴
럼
럽
럿
렀
렁
렇
레
렉
렌
렐
렘
렙
렛
려
력
련
렬
렴
렵
렷
렸
령
례
로
록
론
롤
롬
롭
롯
롱
뢰
료
룡
루
룩
룬
룰
룸
룹
룻
룽
뤄
뤘
뤼
류
륙
륜
률
륨
륭
르
륵
른
를
름
릅
릇
릉
릎
리
릭
린
릴
림
립
릿
링
마
막
만
많
맏
말
맑
맘
맙
맛
망
맞
맡
맣
매
맥
맨
맴
맵
맷
맹
맺
머
먹
먼
멀
멈
멋
멍
메
멕
멘
멜
멤
멧
멩
며
면
멸
몄
명
몇
모
목
몫
몬
몰
몸
몹
못
몽
묘
무
묵
묶
문
묻
물
뭄
뭇
뭉
뭐
뭔
뭘
뭡
뭣
뮌
뮤
뮬
므
믄
미
믹
민
믿
밀
밉
밋
밌
밍
및
밑
바
박
밖
반
받
발
밝
밟
밤
밥
밧
방
밭
배
백
밴
밸
뱀
뱃
뱅
뱉
버
벅
번
벌
범
법
벗
벙
벚
베
벡
벤
벨
벳
벼
벽
변
별
볍
병
볕
보
복
볶
본
볼
봄
봅
봇
봉
봐
봤
뵈
뵙
부
북
분
불
붉
붐
붓
붕
붙
뷔
뷰
브
븐
블
비
빅
빈
빌
빔
빗
빙
빚
빛
빠
빡
빤
빨
빴
빵
빼
빽
뺀
뺏
뺐
뺑
뺨
뻐
뻑
뻔
뻗
뻘
뻣
뻤
뻥
뼈
뽀
뽐
뽑
뽕
뾰
뿌
뿍
뿐
뿔
뿜
쁘
쁜
쁠
쁨
삐
사
삭
산
살
삶
삼
삽
삿
샀
상
샅
새
색
샌
샐
샘
샛
생
샤
샬
샴
샵
샷
샹
섀
서
석
섞
선
섣
설
섬
섭
섯
섰
성
세
섹
센
셀
셈
셉
셋
셔
션
셜
셨
셰
셸
소
속
손
솔
솜
솟
송
솥
쇄
쇠
쇼
숍
숏
수
숙
순
숟
술
숨
숫
숭
숯
숱
숲
쉐
쉬
쉰
쉴
쉼
쉽
슈
슐
슘
슛
스
슥
슨
슬
슭
슴
습
슷
승
시
식
신
싣
실
싫
심
십
싯
싱
싶
싸
싹
싼
쌀
쌈
쌌
쌍
쌓
쌤
써
썩
썬
썰
썸
썹
썼
썽
쎄
쏘
쏙
쏜
쏟
쏠
쏴
쐐
쑤
쑥
쓰
쓱
쓴
쓸
씀
씁
씌
씨
씩
씬
씹
씻
씽
아
악
안
앉
않
알
앓
암
압
앗
았
앙
앞
애
액
앤
앨
앰
앱
앵
야
약
얀
얄
얇
얌
양
얕
얗
얘
어
억
언
얹
얻
얼
얽
엄
업
없
엇
었
엉
엌
엎
에
엑
엔
엘
엠
엣
엥
여
역
엮
연
열
염
엽
엿
였
영
옆
예
옌
옐
옛
오
옥
온
올
옮
옳
옴
옵
옷
옹
와
왁
완
왈
왓
왔
왕
왜
왠
외
왼
요
욕
욜
욤
용
우
욱
운
울
움
웃
웅
워
웍
원
월
웠
웨
웬
웰
웹
위
윈
윌
윗
윙
유
육
윤
율
융
으
윽
은
을
읊
음
읍
응
의
이
익
인
일
읽
잃
임
입
잇
있
잉
잊
잎
자
작
잔
잖
잘
잠
잡
잣
잤
장
잦
재
잭
잼
잿
쟁
쟈
쟤
저
적
전
절
젊
점
접
젓
정
젖
제
젝
젠
젤
젯
져
졌
조
족
존
졸
좀
좁
종
좇
좋
좌
죄
죠
주
죽
준
줄
줌
줍
중
줘
줬
쥐
쥔
쥬
즈
즉
즌
즐
즘
즙
증
지
직
진
질
짊
짐
집
짓
징
짖
짙
짚
짜
짝
짠
짤
짧
짬
짭
짱
째
쨌
쩌
쩍
쩐
쩔
쩜
쩡
쪄
쪼
쪽
쫀
쫄
쫌
쫓
쫙
쬐
쭈
쭉
쭤
쯔
쯤
찌
찍
찐
찔
찜
찡
찢
차
착
찬
찮
찰
참
찹
찻
찼
창
찾
채
책
챈
챌
챔
챘
챙
처
척
천
철
첨
첩
첫
청
체
첸
첼
쳐
쳤
초
촉
촌
촘
촛
총
촬
최
쵸
추
축
춘
출
춤
춥
춧
충
춰
췄
췌
취
츄
츠
측
츰
층
치
칙
친
칠
침
칩
칫
칭
카
칵
칸
칼
캄
캉
캐
캔
캘
캠
캡
캣
캬
커
컥
컨
컫
컬
컴
컵
컷
컸
케
켄
켈
켓
켜
켠
켰
코
콕
콘
콜
콤
콥
콧
콩
콰
쾅
쾌
쿄
쿠
쿡
쿤
쿨
쿵
쿼
퀄
퀘
퀴
퀸
큐
큘
크
큰
클
큼
키
킥
킨
킬
킴
킷
킹
타
탁
탄
탈
탐
탑
탓
탔
탕
태
택
탠
탤
탬
탭
탱
터
턱
턴
털
텀
텁
텃
텅
테
텍
텐
텔
템
텝
텨
톈
토
톡
톤
톨
톰
톱
통
퇴
투
툭
툰
툴
툼
퉁
퉈
튀
튕
튜
튬
트
특
튼
튿
틀
틈
틋
티
틱
틴
틸
팀
팁
팅
파
팍
팎
판
팔
팜
팝
팟
팠
팡
팥
패
팩
팬
팰
팸
팻
팽
퍼
퍽
펀
펄
펌
펑
페
펙
펜
펠
펫
펴
편
펼
폄
폈
평
폐
포
폭
폰
폴
폼
퐁
표
푸
푹
푼
풀
품
풋
풍
퓨
퓰
프
픈
플
픔
피
픽
핀
필
핍
핏
핑
하
학
한
할
함
합
핫
항
해
핵
핸
햄
햇
했
행
향
허
헉
헌
헐
험
헛
헝
헤
헥
헨
헬
헷
혀
혁
현
혈
혐
협
혔
형
혜
호
혹
혼
홀
홈
홉
홍
화
확
환
활
황
회
획
횟
횡
효
후
훈
훌
훑
훔
훗
훤
훨
훼
휘
휙
휠
휩
휴
흉
흐
흑
흔
흘
흙
흠
흡
흥
흩
희
흰
히
힌
힐
힘
힙
金
不
女
李
理
️
＂
％
＆
＋
，
－
：
；
＜
＝
＞
ｍ
ｔ
｜
｢
｣
🏻
👉
👍
💕
😂
😆
😍
😭
🤣
##u
##p
##e
##r
##f
##l
##a
##n
##t
##i
##기
##호
##순
##환
##개
##선
##제
##ㆍ
##혈
##소
##판
##응
##집
##억
##그
##러
##들
##q
##종
##훈
##z
##o
##m
##k
##d
##b
##s
##박
##진
##미
##v
##c
##성
##용
##5
##4
##어
##이
##음
##h
##석
##현
##마
##읍
##리
##ㅏ
##ㅅ
##다
##사
##g
##생
##산
##시
##설
##을
##재
##료
##술
##은
##ㅋ
##나
##y
##매
##업
##의
##é
##T
##0
##1
##직
##할
##공
##망
##고
##키
##위
##복
##합
##체
##두
##ㅠ
##식
##해
##님
##뻥
##바
##겔
##출
##세
##대
##E
##A
##R
##C
##H
##M
##N
##서
##수
##민
##터
##가
##압
##지
##도
##교
##장
##영
##혼
##회
##적
##봉
##카
##츠
##져
##온
##르
##무
##관
##D
##척
##본
##우
##를
##평
##통
##갑
##열
##쇠
##부
##과
##젠
##데
##👍
##멀
##떠
##비
##💕
##릿
##만
##자
##연
##금
##후
##추
##파
##슬
##루
##필
##승
##전
##찬
##앙
##오
##근
##에
##겐
##남
##여
##축
##w
##맥
##울
##보
##인
##거
##라
##요
##능
##I
##O
##깅
##엉
##ㅇ
##레
##저
##쇼
##핑
##육
##예
##3
##8
##션
##휴
##량
##로
##테
##른
##네
##톰
##하
##B
##권
##포
##니
##일
##명
##끄
##K
##Y
##각
##극
##탈
##학
##습
##디
##양
##광
##주
##송
##치
##국
##아
##즈
##텍
##잉
##말
##차
##칠
##슨
##잎
##9
##L
##S
##방
##맹
##란
##군
##ㅂ
##짜
##올
##같
##케
##6
##걸
##신
##구
##원
##눈
##7
##스
##타
##푸
##코
##는
##태
##앤
##젤
##피
##버
##트
##물
##화
##첨
##엄
##청
##렴
##름
##새
##끼
##야
##▼
##폭
##염
##으
##강
##릉
##머
##안
##중
##흥
##단
##정
##김
##임
##상
##령
##크
##죄
##처
##벌
##x
##운
##유
##까
##숙
##특
##2
##J
##증
##왕
##녀
##며
##j
##U
##투
##발
##X
##철
##F
##래
##표
##ㄹ
##게
##럽
##더
##죠
##턴
##림
##돌
##P
##닌
##채
##동
##뀌
##엇
##역
##건
##작
##황
##창
##난
##천
##홈
##립
##협
##G
##댐
##드
##곤
##볼
##문
##언
##애
##옥
##W
##록
##헤
##백
##속
##땐
##귀
##폰
##꽂
##었
##넌
##심
##틀
##춘
##희
##완
##간
##됐
##겨
##내
##려
##했
##입
##절
##ㅎ
##행
##악
##분
##샘
##랑
##효
##큐
##경
##람
##따
##웠
##토
##셀
##릴
##먹
##손
##모
##V
##배
##병
##막
##늘
##류
##랭
##윤
##ㅌ
##날
##앵
##벨
##벳
##독
##노
##뽀
##담
##ㅜ
##씬
##긴
##ᆞ
##팅
##던
##셔
##누
##쓰
##계
##충
##외
##항
##ㄱ
##델
##활
##품
##칙
##익
##옷
##월
##짠
##질
##액
##융
##감
##콘
##텐
##솔
##탁
##별
##년
##졸
##많
##삼
##형
##너
##조
##변
##달
##죽
##긋
##넹
##н
##홍
##길
##곳
##준
##알
##낫
##잔
##면
##풀
##с
##е
##о
##곡
##린
##택
##히
##접
##한
##듯
##베
##논
##섭
##룩
##댔
##실
##급
##렌
##훼
##당
##향
##씨
##겼
##색
##엽
##흐
##족
##결
##납
##등
##р
##а
##참
##못
##되
##и
##롱
##패
##딩
##골
##격
##흑
##규
##좀
##커
##였
##큼
##허
##균
##범
##🏻
##잖
##메
##프
##꽃
##번
##쇄
##랄
##법
##락
##와
##낼
##찰
##써
##력
##꼈
##꾼
##냐
##함
##밀
##점
##풍
##율
##초
##반
##득
##꼴
##벙
##침
##т
##렸
##묘
##념
##팸
##플
##북
##빌
##몰
##퇴
##혁
##흉
##ㄷ
##탄
##렁
##힐
##링
##책
##펠
##믿
##혔
##암
##센
##웅
##둑
##쫀
##숭
##겸
##덕
##론
##꼬
##춤
##ㅡ
##빠
##갓
##냉
##갈
##편
##씌
##련
##왼
##몬
##클
##좌
##싶
##취
##딱
##불
##약
##륵
##쪼
##꼽
##살
##섹
##률
##찌
##뇨
##샤
##껍
##칼
##슈
##렀
##블
##빙
##킨
##견
##륙
##맞
##객
##엿
##Z
##목
##욕
##엔
##먼
##폐
##얼
##굴
##첩
##웨
##켜
##힘
##갯
##층
##빵
##빈
##헌
##팀
##괴
##농
##최
##ㅈ
##밍
##톤
##넥
##잇
##촬
##곽
##랜
##십
##랏
##엌
##템
##퀴
##브
##닥
##둠
##왈
##픈
##뇌
##될
##️
##궁
##쟈
##괘
##섬
##랩
##콩
##텔
##꾸
##짝
##벼
##험
##룡
##촉
##쿠
##워
##착
##털
##얌
##밌
##칭
##굿
##닷
##쳐
##😭
##튼
##께
##꺼
##둥
##Q
##욱
##멜
##둔
##톡
##쌍
##뿌
##찾
##있
##굶
##빡
##묵
##뭉
##칸
##딘
##쁨
##꼼
##확
##😆
##컨
##글
##혜
##벤
##셜
##셰
##놈
##넨
##늄
##튀
##벽
##긍
##퍼
##멕
##횡
##깔
##좋
##즉
##낭
##짐
##친
##옴
##륜
##답
##걀
##퉁
##뮌
##헨
##것
##쟁
##촌
##럼
##쓴
##맛
##톱
##탐
##검
##랴
##볶
##댁
##휘
##잡
##멍
##페
##껏
##랍
##찮
##티
##겄
##햇
##콜
##뜨
##헬
##빛
##낸
##ㄴ
##삽
##받
##쥐
##혀
##겟
##펴
##셈
##맨
##킬
##돈
##닮
##앗
##흠
##の
##젯
##궐
##밖
##략
##즘
##때
##줄
##톨
##든
##릅
##춰
##널
##뿐
##럴
##갛
##샌
##쌓
##곰
##팡
##뤼
##😂
##🤣
##또
##례
##튜
##샐
##옵
##곱
##탕
##씹
##맘
##꼭
##ㅁ
##됨
##콧
##😍
##툰
##떡
##획
##쾌
##줘
##돼
##삭
##덜
##몽
##몹
##뮤
##○
##²
##뺏
##멸
##귄
##캠
##럭
##겁
##쭈
##룽
##홀
##쭉
##넬
##뮬
##옹
##ｍ
##쌈
##밥
##둬
##닭
##똥
##콰
##섯
##덤
##룬
##웬
##엘
##깨
##끗
##▷
##냈
##뢰
##꾹
##놓
##돕
##웃
##흔
##홉
##큰
##늑
##쑤
##핀
##총
##⠀
##뱃
##븐
##끔
##꽁
##뼈
##샹
##놀
##챔
##존
##릭
##헝
##않
##앉
##젓
##늙
##흙
##롯
##핵
##멘
##ㅣ
##넷
##뱅
##킹
##렬
##끈
##았
##횟
##떻
##걔
##뷰
##슘
##팔
##쉬
##움
##몸
##헐
##된
##캐
##없
##윙
##앱
##끓
##궤
##쯔
##딸
##덴
##왔
##듬
##뺨
##멧
##덮
##녹
##붓
##픔
##뒷
##꿈
##잘
##겠
##빨
##짓
##낙
##느
##②
##⑤
##⑥
##녕
##넘
##켓
##싼
##×
##믹
##덧
##딧
##퓨
##싸
##쑥
##멋
##붕
##얻
##빅
##캡
##싱
##츰
##닝
##펜
##핏
##돔
##썽
##밤
##캔
##졌
##탠
##탑
##쳤
##닉
##늬
##런
##킥
##떼
##틱
##쉽
##괄
##걍
##＋
##깐
##첫
##옆
##엑
##왓
##므
##붙
##띠
##렉
##렇
##흡
##징
##뜩
##빗
##츄
##뒤
##롬
##삐
##켰
##챈
##렙
##콥
##콤
##쌤
##갸
##슴
##∼
##닿
##랫
##혹
##냥
##컴
##밋
##봐
##팬
##땅
##쿤
##즐
##켈
##딕
##뭐
##벡
##엥
##낱
##딛
##닐
##셨
##콕
##똑
##앨
##깜
##떨
##＜
##놨
##컬
##쪽
##퀘
##끌
##쌀
##찹
##잠
##램
##옌
##쿨
##윈
##폴
##덩
##잃
##측
##롤
##꿀
##쪄
##컥
##밧
##펀
##낌
##햄
##욜
##틸
##씀
##닛
##값
##훤
##■
##싯
##얽
##턱
##괜
##덥
##첸
##뽑
##둘
##밸
##쿄
##캄
##륨
##껄
##꿍
##젖
##봄
##뉴
##듣
##귤
##펌
##툴
##숨
##윗
##봤
##엠
##섰
##엎
##듀
##킴
##잣
##찼
##낚
##렛
##썰
##굽
##펄
##푹
##▶
##굳
##찍
##맴
##룹
##쵸
##벅
##높
##쥬
##룻
##◆
##쩌
##궈
##갤
##찡
##쩜
##즙
##댄
##텨
##깥
##슭
##뽕
##렷
##뀐
##렐
##뗄
##룰
##틴
##헉
##댈
##뤘
##룸
##Ⅱ
##Ⅲ
##젝
##볕
##밑
##맡
##뚝
##팍
##꾀
##깡
##썹
##릎
##슷
##→
##왜
##탭
##눔
##째
##셋
##깊
##팥
##뭇
##뻐
##끝
##뚱
##씻
##팽
##푼
##낄
##렵
##깃
##읽
##삶
##돋
##눕
##녔
##륭
##□
##●
##쉼
##눌
##걷
##핫
##빼
##흰
##솜
##끽
##꿔
##났
##늦
##뚜
##딜
##닙
##싫
##왠
##퐁
##쉐
##쁘
##△
##≪
##숍
##즌
##댕
##펙
##샴
##싹
##큘
##왁
##숫
##맷
##뜰
##텀
##쫄
##찜
##짱
##윌
##뛰
##펑
##줌
##괌
##꺽
##믄
##갠
##봇
##윽
##뜻
##셉
##겉
##뱀
##갱
##㎝
##톈
##튬
##컵
##탬
##섞
##밭
##깍
##쁠
##뜸
##굵
##랬
##핍
##늪
##펫
##뉘
##젊
##릇
##랐
##팩
##탤
##걱
##딪
##쁜
##①
##④
##씽
##녁
##⑦
##픽
##삿
##Ⅰ
##쿡
##랗
##헷
##ㅤ
##쏟
##뷔
##힌
##쭤
##뤄
##뎅
##쩔
##핸
##훌
##곶
##갔
##랙
##섀
##뭔
##뎌
##웹
##뚤
##샷
##숲
##솥
##낮
##렘
##틈
##킷
##땡
##줬
##낳
##숯
##얀
##뻔
##✨
##밴
##듭
##궂
##탱
##★
##☆
##멩
##쥔
##롭
##샵
##뭄
##욤
##찐
##틋
##깁
##뾰
##찻
##씩
##벗
##뵈
##넉
##웍
##앞
##캣
##눠
##눅
##뺀
##옳
##켄
##쩍
##♥
##뿔
##넓
##붐
##흘
##힙
##딴
##웰
##팜
##췌
##댓
##벚
##멈
##챙
##겹
##귓
##뜬
##쉴
##줍
##봅
##몇
##껴
##찔
##덱
##꽝
##텅
##㈜
##뿜
##멤
##샛
##냄
##❤
##앰
##촛
##슥
##앓
##첼
##혐
##컷
##쐐
##훔
##뻘
##곧
##쓸
##👉
##껌
##칵
##짚
##쯤
##닫
##껑
##얄
##짭
##띔
##놔
##팝
##깝
##솟
##쏘
##쏙
##팟
##짖
##얘
##셸
##쫓
##냠
##꼿
##뒹
##얗
##밝
##쿵
##숟
##▲
##쎄
##캉
##쓱
##슐
##갚
##쫙
##춧
##굉
##텝
##짤
##빔
##㎡
##뛴
##썼
##붉
##칫
##긁
##퀄
##춥
##둡
##칩
##듈
##ｔ
##♡
##헥
##땀
##쏠
##뻗
##☞
##떤
##풋
##깬
##끊
##팠
##냅
##딤
##넛
##챌
##퀸
##갖
##팰
##썩
##엮
##옐
##뭡
##낯
##캘
##럿
##헛
##빤
##썸
##낀
##늠
##샬
##몫
##↑
##뻑
##팁
##툼
##③
##＝
##´
##─
##훨
##똘
##딥
##쉰
##및
##띤
##│
##녘
##짧
##퍽
##짬
##슛
##뻣
##잦
##볍
##쏴
##촘
##폼
##쟤
##맙
##맏
##쫌
##텃
##엣
##씁
##닦
##밟
##잼
##묻
##펼
##맣
##✔
##빴
##툭
##넣
##캬
##얹
##◇
##쩡
##쾅
##맵
##｜
##좇
##떴
##∙
##℃
##냇
##돗
##퓰
##꿇
##잊
##꿨
##튿
##폈
##썬
##쬐
##팎
##휙
##폄
##쩐
##췄
##뺑
##잿
##쏜
##쿼
##켠
##잭
##탓
##챘
##깎
##텁
##숏
##옮
##뿍
##땜
##맑
##옛
##튕
##훗
##샅
##떳
##뭘
##깻
##짙
##맺
##컫
##얇
##꺾
##랠
##쌌
##싣
##좁
##숱
##뻤
##빚
##겪
##찢
##뛸
##늉
##뜯
##━
##덟
##＞
##잤
##♀
##덫
##밉
##휠
##빽
##팻
##뒀
##땠
##뀔
##끙
##갇
##눴
##⊙
##흩
##묶
##컸
##읊
##㏊
##꿰
##띄
##㎞
##퉈
##낡
##얕
##㎜
##꽤
##㎎
##≫
##짊
##넸
##샀
##넋
##뚫
##뺐
##뱉
##곁
##㎖
##ℓ
##뵙
##섣
##뭣
##쨌
##꿋
##탔
##뉜
##띈
##훑
##뽐
##땄
##◈
##휩
##몄
##㎏
##됩
##꽉
##닳
##㎾
##㎥
으로
에서
한다
##니다
##00
에게
라고
까지
사람
지만
면서
아니
다는
우리
습니다
대한
20
는데
라는
된다
다고
때문
지난
그러
위해
생각
한국
19
부터
보다
10
지역
문제
그리
그런
자신
사업
경우
시간
이나
대해
통해
해야
기업
사회
시장
그렇
200
아이
201
따라
관계
함께
다른
하나
이상
정부
지금
대표
가능
가지
교육
세계
미국
이런
처럼
사실
시작
서울
그래
그리고
경제
도록
가장
필요
그러나
만들
어요
정도
경기
##지만
는다
들어
이번
위원
으면
해서
다시
지원
연구
중국
위한
##통령
하지만
문화
대통령
이제
관련
프로
모두
투자
사용
밝혔
상황
##니까
일본
어서
12
어떤
의원
정치
입니다
이렇
계획
마음
11
이후
개발
모든
다가
대학
그것
ㅋㅋ
기술
특히
국가
다음
거나
결과
많이
후보
사이
국민
지난해
이렇게
현재
국내
30
학교
조사
이야
최근
으며
활동
과정
중요
15
진행
산업
전문
올해
는지
새로
대상
다양
이야기
관리
너무
어떻
##er
도시
동안
나타
정보
학생
이미
회사
##대로
영화
민주
정책
이용
그래서
여기
평가
##000
나라
자기
모습
이유
보이
사랑
바로
금융
스타
설명
여러
처음
##스트
운영
다면
결정
아무
이어
##부터
자리
생활
내용
18
##주의
합니다
인간
의미
없이
한다는
제품
기록
관계자
여성
돌아
##비스
이날
운동
업체
당시
못하
또한
시키
그녀
오늘
어야
새로운
선수
방법
##on
환경
##어나
라며
주장
##운데
북한
예정
추진
더라
##시아
서비스
이러
삼성
최고
어떻게
물론
참여
현대
역사
만큼
같이
규모
가운데
계속
가격
나오
국제
경쟁
소리
시민
경찰
발전
기관
방송
선거
사건
준비
교수
그런데
관심
직접
기대
지방
감독
기준
회장
생산
어느
13
성장
어려
16
얘기
따르
##머니
여자
부분
아닌
중심
##인다
발생
상태
무엇
시대
효과
역시
제공
199
구성
보여
##in
판매
대구
ㅋㅋㅋ
부산
분석
상대
마련
국회
개인
변화
14
전체
100
25
발표
그렇게
확인
고객
요구
인지
아직
성공
수준
알려
이해
은행
행사
모르
노동
떨어
##랜드
##레이
대회
17
인데
이름
일반
자유
가족
인터
경영
더욱
자연
니까
얼마
정말
위원회
입장
##an
##그램
친구
센터
일부
전국
시설
포함
인가
50
조선
대해서
상품
기간
위해서
구조
소비
증가
공동
실제
작품
자동
프로그램
지적
단체
주민
노력
##버지
로서
달러
얼굴
해도
영향
최대
방식
이것
결국
지나
가치
강조
활용
##en
확대
존재
세상
피해
분야
당신
한편
건강
남자
책임
건설
##다는
조직
라면
대로
인사
나가
정신
##으며
역할
마다
제도
회의
전략
또는
특별
##거리
전망
현실
을까
먼저
##or
강화
사고
대부
는가
선택
만나
조금
##ti
자체
어린
주택
라도
찾아
한다고
사진
유지
미래
과학
기능
안전
21
외국
경험
밖에
예상
이루
못했
보험
공개
##소리
하루
해결
능력
병원
기자
24
대부분
##전히
아요
##리아
누구
여행
그룹
40
##al
관광
##진다
인천
어디
직원
목표
시스
정상
표현
해외
개선
드러
기존
공사
##es
현장
오후
거래
서로
그램
려고
##없이
올라
인정
보인다
비롯
##ar
아파
나온
못한
아버지
중앙
위기
행정
머리
공간
자동차
수사
광주
내려
##이트
22
로부터
개월
방문
아서
대비
따라서
마을
지속
기본
전화
기회
시스템
위원장
적용
엄마
계약
아야
##너지
지도
##린다
##마트
아주
실시
상승
주요
적극
느냐
예산
23
단계
반대
려는
추가
마지
거리
감사
도움
예술
고려
부담
업무
바람
판단
행동
음악
검찰
집중
아파트
바라
##동안
수익
치료
들어가
시즌
해당
언론
세요
배우
장관
거의
##이스
상당
으로써
게임
내년
##스로
우선
전쟁
이전
무슨
마지막
선생
작업
그냥
음식
브랜드
사장
통합
민주당
공연
이사
##자리
그때
행위
의견
차이
확보
##어난
조성
작가
설치
비판
아들
스스로
행복
협력
단지
전문가
의사
27
자료
보내
26
처리
시켜
동시
달리
비용
보호
대신
선정
더라도
으로서
조정
과거
공급
근데
나왔
어머니
유럽
기억
진짜
매우
198
28
평균
##디어
각각
순간
##he
그림
제대로
주변
말씀
문학
목소리
공부
부족
누리
움직
자금
의해
거든
분위
언제
위험
인터넷
글로
보도
발견
어렵
이익
만든
스러
안정
인식
수출
스럽
사무
부모
주인
가까
매출
제작
대책
결혼
##나라
복지
의식
제시
보였
글로벌
##른다
분위기
지요
공격
##전자
이르
차지
방안
분명
전통
지구
에너지
그럼
관한
앞서
환자
얼마나
소비자
통신
전자
목적
우려
예요
체험
가구
반면
열린
느낌
영업
오히
이뤄
그대로
오히려
주식
##가지
지지
인기
기다
위치
제기
비교
규정
전시
스마트
롯데
핵심
LG
출신
한테
디자
논의
의료
충분
생명
도입
피부
신문
형태
시행
종합
따른
질문
시기
60
인상
공장
29
모델
소개
중소
##st
잖아
교통
영국
지식
더니
차례
비해
나이
고자
장애
드라
일정
네요
제주
광고
전혀
방향
##ic
가정
거기
##기업
마치
신청
지난달
현상
장기
프랑
##이어
##어지
이게
##으나
업계
##아들
TV
검사
대화
SK
노래
잘못
힘들
참석
높이
소설
대출
아름
희망
##리스
가진
카드
오전
##아가
아래
부동
펀드
다르
가져
독일
아침
에선
인물
사례
##it
개혁
개최
유치
그만
기획
최초
걱정
기사
이동
성과
조건
각종
청소
재정
시절
혁신
소득
인제
대전
나타났
으나
##om
##라인
합의
공공
수도
주목
연결
이곳
요즘
##레스
습니까
고민
수요
청와
시험
청와대
전기
정당
자본
개념
등장
유명
혐의
부문
일단
거든요
참가
부동산
체계
자산
에요
협의
다니
차량
구체
리그
2000
수입
사상
##무원
##포츠
도로
담당
대형
준다
시청
정확
버리
디자인
연기
훈련
##인트
아마
교사
단순
세대
듯이
느끼
내부
##at
가슴
선보
논란
##el
어린이
민족
으로부터
아시아
가입
재판
올림
사라
나무
남편
체제
대응
프랑스
원인
자원
검토
선물
건물
분양
오래
으니
##어들
감소
##이터
본부
반영
조치
구축
진출
금리
경남
31
보고
70
그동안
부정
인해
전달
어려운
무대
##한다
실제로
차원
나와
출시
인도
불과
인생
소속
이하
공식
증권
맛있
주제
해요
일상
감정
반응
##수록
평화
자세
스포츠
한다면
전환
본격
청년
우승
여름
##므로
국정
기반
##자기
의회
고용
올림픽
하늘
비슷
다만
남성
만드
##반기
어도
지켜
##이크
아내
##am
설립
회복
##ing
넘어
여부
지급
분기
파악
확실
마찬
여전히
울산
##tion
이끌
##BS
공원
마찬가지
현지
노조
그게
세기
형성
규제
등록
기초
##이지
성적
학습
영어
살펴
떠나
개정
모양
받아들
으면서
경기도
활성
나타나
##학교
대선
바이
구매
197
박근
신경
선발
고요
외국인
##이션
교회
##ol
추천
수행
연합
혼자
우수
제한
##is
소재
##드시
승리
반드시
공정
이거
포인트
일자리
해석
보장
일어나
투표
임금
박근혜
제외
비율
코스
의지
려면
이미지
노인
기념
갈등
드라마
혹은
500
공무원
화장
지하
만족
대중
35
집단
부인
달라
정권
학년
최종
약속
부르
주도
##다고
80
당연
언어
보수
민간
아름다
2010
방침
##ㅋㅋ
식품
러시아
자주
오른
재미
요청
항공
협상
##은행
통일
시도
##ur
올리
정리
내놓
2012
매일
께서
남북
은데
축구
##et
스타일
훨씬
실패
나서
그러니까
하락
군사
중소기업
인구
경북
시킨
도전
축제
바라보
영상
권력
가르
불안
##il
출연
제안
연구원
변호
겨울
진정
소통
##스터
통한
유통
항상
절차
주로
보유
이론
##nd
저녁
독립
굉장
지정
기분
제조
호텔
알려졌
오르
실적
협회
대체
월드
작용
최소
홍보
갑자기
원칙
성격
대답
외교
공항
법원
경쟁력
빠져
수술
조차
영역
프리
심리
속도
시켰
원장
고개
불구
그래도
종교
요소
연속
회원
사항
둘러
##운드
토론
엄청
##다가
건축
근로
삼성전자
스러운
했으며
동물
일으
특성
직장
창조
신고
절대
시각
죽음
봉사
거쳐
수상
불러
특정
세력
특징
강력
미술
취업
하나님
사태
바다
회담
골프
철학
만약
창업
빨리
의혹
마케
지배
##스크
여야
열리
나누
뉴스
므로
선언
는데요
2011
전해
작년
굉장히
됩니다
2014
일까
##어진
내리
불법
태도
수업
마케팅
으려
인수
고통
체육
청소년
사전
측면
알아
자녀
인력
덧붙
여론
보통
총리
주문
of
누가
스트
##민국
접근
수원
차별
바탕
재산
2009
야구
표정
소식
돌아가
유리
물질
설계
초등
근무
쇼핑
라이
##스타
##요일
##스코
대한민국
##라이
된다는
##디오
정의
과제
2008
하이
더불
신뢰
무역
##심히
혁명
드리
##ch
##ㅠㅠ
구속
##어났
2013
생기
2015
소유
향후
마리
포기
심사
지키
본다
제일
금액
세월
교과
주의
으니까
##우스
심각
나온다
전했
커피
연금
법인
부부
졸업
자치
조합
촬영
장소
출발
저희
범죄
버스
약간
계기
잖아요
비중
확정
##ed
언급
사망
1000
근거
##BC
잠시
효율
프로젝
##무리
나섰
지사
주가
발언
제출
통과
카페
신용
거부
중단
##러스
달려
안타
김정
강원
인근
##다보
느껴
완성
##나무
196
프로젝트
실천
상담
그랬
가득
45
향해
할인
32
여러분
이란
올랐
완전히
가량
외부
달성
전형
살아
전남
눈물
300
등급
그리스
36
고등
온라인
예방
본인
혜택
해양
스마트폰
임대
in
마시
33
그럴
당국
바꾸
오랜
앞두
노동자
##벤트
열심히
창출
소송
##니스
상상
변호사
유일
이벤트
마무리
##거운
강한
아프
5000
장면
다리
그러면
기다리
강남
불리
금지
##페인
바뀌
지수
시킬
재단
화학
겁니다
로운
버렸
충분히
##텐츠
##od
리더
의무
들여
떨어지
원래
000
나머
##ou
놀라
the
펼쳐
나머지
전력
할지
식사
수용
##의원
아도
통화
미치
##서관
덧붙였
법률
평소
매장
을지
뭔가
아무리
대하
도착
##le
요리
의한
독자
서울시
매년
신규
요인
아빠
밝혀
주인공
흔들
컴퓨
계열
##학생
90
전반
초기
##화점
##이드
동일
구나
자는
웃음
이때
KT
자격
괜찮
인터뷰
당선
투입
권리
이른
직업
어려움
배경
전용
나선
##라도
상징
투자자
완전
2007
##프트
미디어
긍정
##고기
헌법
변경
배치
의장
미리
학부
메시
부장
아닐
그거
대사
중간
채용
한나라
향상
한나라당
형식
매력
##ation
확산
구입
벗어나
라인
불편
통해서
박사
콘텐츠
케이
연구소
작성
꾸준
문재
베이
구요
##re
동아
이어지
맞춰
논리
진단
컴퓨터
집행
물건
부여
육성
보상
철저
특수
야당
패션
사과
나갈
수석
사정
시점
빠르
체결
동의
인권
데이터
연계
34
연출
수학
공유
선진
살펴보
기울
인한
##as
복합
한계
실현
흐름
휴대
반복
폭력
그린
부지
##다면
##바일
우주
아름다운
38
전하
아닌가
채권
2016
똑같
연장
교육청
모바일
국토
부상
점점
##리카
입주
국방
주말
자랑
상호
결코
도와
위반
알리
수단
봐야
네트
균형
다며
올려
와서
든지
보고서
텔레
했으나
가리
설정
##ent
대변
토지
예비
브라
판결
극복
기구
할머니
고기
생태
시선
종목
당장
##일보
무료
마저
과연
학원
##20
적절
백화점
실험
만난
가을
줄이
사이트
태양
기계
이달
는다는
이명
누군
##50
주체
된다고
긴장
종류
맛집
모집
그건
의도
무기
기여
의심
관객
나중
추구
##페이지
순위
##환경
홈페이지
청구
전년
모아
떠올
점검
메시지
타이
고양
보건
연대
실장
ㅎㅎ
수많
구분
걸쳐
##반도
무리
지시
편지
37
국회의원
농업
모른다
가까이
간단
원내
충격
국립
시리
동기
갖추
증거
아동
궁금
상당히
절반
정비
두려
이탈
월드컵
당하
연간
##간다
해소
##워크
그곳
아기
편의
통제
따뜻
위협
늘어나
진실
과장
표시
##가락
운용
교체
허용
진보
세트
비밀
시인
경향
완화
자율
소장
스토
인재
뿌리
이건
범위
뉴욕
바닥
공약
움직이
가까운
지상
예전
피해자
즐기
수수
플레이
모임
##럼프
단위
의하
세금
다이어
요금
운전
불가
IT
했었
계산
레이
메뉴
어쩌
반발
고급
왜냐
안보
방지
대단
자극
오픈
그걸
지자
부대
한반도
부처
합리
전부
수정
돌려
새롭
최저
모여
위하
출전
내일
출판
디지
다소
장비
총선
인하
장치
자식
별로
총장
결론
강의
and
확장
들어갔
##ag
다섯
대우
##산물
벌이
면은
벌써
가수
나요
전개
공단
주차
생긴
최선
명령
흘러
들어오
주일
관광객
힘든
상처
출마
나올
교류
어울
대학교
마침
어깨
##러운
비행
##말로
발행
상관
부품
어찌
##어날
장점
실력
2006
할까
디지털
트럼프
##메라
창원
구역
밝히
정기
응답
끌어
연주
실질
공감
인증
천만
##ac
보조
공천
에스
역량
공기
근대
나아가
싸움
식당
철도
예측
네트워크
부드
움직임
연습
비상
질환
비난
무시
끝나
이내
고향
39
근본
##구요
공동체
고속
지자체
##란다
어떠
추정
덕분
제거
누군가
가로
시리즈
부탁
정체
한데
지점
아닙
둘째
강하
자전
관점
투쟁
완벽
어제
사업자
거듭
희생
따로
점수
충남
##난다
기부
55
##아지
회견
품질
코리아
48
김영
이명박
들려
정규
##이너
예수
##니아
게다가
42
빠른
유형
매각
동생
새벽
손해
해졌
그만큼
지분
세우
친환경
문재인
조용
국장
이기
평생
눈길
면적
베트
처벌
군요
강제
감안
크기
경주
명예
필수
분명히
분리
단어
3000
물리
43
근로자
정해
원자
협약
민주주의
재료
저축
동네
뛰어
동료
대안
이성
관람
통하
에게서
현대차
안내
배출
##ro
별도
돼야
이웃
이자
내세
꾸준히
개국
한화
으므로
41
올라가
이래
더라고
동원
투어
복잡
머물
폐지
탄생
MBC
##공사
전투
전면
공모
##사자
승부
기독
언제나
194
##하면
KBS
일제
결합
지도자
거짓
올렸
##회장
수립
그려
학부모
부채
자전거
2005
도덕
미소
메이
##ri
단일
수능
아까
미사
아이디어
보증
##오르
2017
캐릭
유사
개입
경계
44
언니
##준다
블랙
카메라
실수
크리스
팀장
발굴
비즈
후반
65
거대
애플
국무
키우
서울대
캐릭터
한국인
처분
발휘
나눠
냄새
사내
혹시
법안
너무나
감각
영양
그저
문자
유가
학자
다녀
여유
짜리
아무런
주년
촉구
주위
베트남
도서관
버린
대리
자면
##대표
그날
집안
연락
##us
좋아
물러
화려
당연히
고서
석유
조기
원리
원전
46
번호
대법
통계
소녀
아울
오늘날
맞추
내렸
부자
업종
입학
질서
진입
깊이
##프라
채널
##ad
저자
개방
CE
##센트
시위
보냈
걸어
구간
후원
습관
물량
사실상
고교
이라
2004
멀리
통상
투명
성분
떨어진
프리미
비록
제목
진다
캠프
매체
기독교
다행
다루
선고
개편
##ec
주거
이외
분류
그니까
박물
2018
출범
어른
The
2002
날씨
불만
못해
다이어트
갖춘
현금
정원
노선
흥미
47
파괴
허리
형사
##시오
##지어
윤리
400
가스
생겼
취지
그러므로
슈퍼
검증
상반기
##TA
손실
##뮤니
소프트
투수
접수
##라스
커뮤니
세워
훌륭
취임
기도
건너
왜냐하면
##un
직후
첨단
추세
##em
아쉬
만났
치열
설득
49
담배
사무실
52
텐데
곳곳
놀이
포항
유도
아예
개별
본질
권한
오빠
포스코
##⠀⠀
느낄
##바로
조절
이른바
##리어
하반기
옛날
양성
내게
이랑
인류
##아버지
기타
고등학교
감동
열정
기에
지휘
엄청난
홈런
부회장
네네
선호
신체
개성
사유
옮겨
##으니
자고
거주
몰랐
조심
승인
나갔
대기
화장품
안녕
공포
빠지
건립
지닌
테이
허가
생존
박물관
제재
계층
부서
발달
동반
서구
마르
KB
##어져
연극
스트레스
전공
이재
바꿔
##리트
악화
즐길
##피스
경선
첫째
떨어져
위안
##ot
생겨
##메달
고위
##케이션
기소
비즈니스
심지어
증상
다수
걸음
살아가
상장
51
##ow
임시
끊임
최대한
타임
비전
운명
활약
##리오
폭발
서민
일찍
##다른
깨끗
소년
75
압박
표준
매수
이승
설비
바르
지내
의문
멤버
점심
초반
혼란
못할
상대방
스테
유기
줄어들
남녀
다이
##세요
키워
주관
취소
화제
뛰어난
자꾸
전날
대변인
원내대표
여인
종이
돌파
편안
##ww
파리
맞춤
www
가졌
선배
던지
점차
클럽
2003
화면
아르
53
보낸
돌아오
##마자
재미있
매매
컬러
기기
시원
바란다
풍부
화재
축소
단기
시내
195
인공
미군
여건
##다란
군대
매달
임명
밝힌
학과
논문
주력
크림
성인
193
육아
##어졌
##ood
타자
이뤄지
택시
서류
전제
뮤지
심장
##ig
드러내
신설
이슈
보안
가게
부진
단순히
소중
해진
##다니
오염
개막
합격
당초
고정
소화
여당
구단
교과서
역대
스님
54
돼지
수비
활발
살리
##ter
##러리
취하
지니
자마자
반도
아울러
연말
모자
어쨌
##구나
의존
##으면
순수
느라
이탈리아
나쁜
취재
150
찾아가
##란드
대장
56
인프라
시티
신화
재무
소방
퍼센트
솔직
규칙
단독
무상
협의회
공직
영원
공통
임원
검색
##터리
##ess
59
수십
클래
참고
되게
광장
분노
편집
제국
지향
위주
##공업
##직원
명확
녹색
대학생
오리
제정
조각
측정
유엔
집회
전세
##og
신세
매입
받아들이
목숨
독서
흐르
자라
물가
맥주
해운
꺼내
펼치
두산
초청
비리
녀석
끝내
판사
자아
미안
면접
사법
경고
방어
용기
에이
선박
변동
인정받
초대
하고
노무
호흡
이행
다운
아우
여수
##회사
공산
몰라
조언
법정
일종
관찰
##란히
피하
줘야
##은이
##교육
문제점
걸리
경력
대가
인원
순환
점유
구하
##어도
광역
##세대
나름
완료
CEO
가난
##id
기아
상업
저지
숫자
마주
잠재
사원
편성
차단
성향
학문
자살
저렴
떨어졌
노출
이스
##티브
포장
이사장
실행
데뷔
제약
증명
흔히
침체
가동
당했
드러나
중학교
회계
미사일
자네
아이템
느꼈
##ul
작전
##워서
사물
수시
##으로
com
실업
복귀
파트
가끔
극장
##친다
1990
신분
연수
데이
늘리
도심
청장
호주
강원도
##담회
조작
챔피
호소
57
살인
기원
저항
즐거
##ce
김치
무릎
예고
사기
58
문장
이틀
더라구요
이루어지
나타내
견해
특허
답변
적합
부과
전북
해방
양식
취득
채택
형제
황제
커다란
진술
커지
심의
결제
##NS
조명
지주
농민
만남
과목
사라지
무려
##마디
##플레이
예약
상위
##카드
득점
##까요
총회
고소
잠깐
시사
##um
부실
대북
보관
연예
오랫
지하철
잇따
##ers
감시
리라
질병
며칠
프리미엄
신호
아무것
주주
협정
바이오
는다고
대구시
소문
근처
계열사
식물
백성
독특
들어서
FTA
로마
사퇴
배제
무서
몰려
토대
##버스
아니면
페이스
천안
방해
창의
각자
학기
지나치
64
##os
환율
오바
스토리
늘어난
마감
교육감
발사
객관
알려진
간담회
세종
##IA
거론
##ay
##조건
2001
본사
동부
공화
적자
풍경
시청자
보완
##ve
더라고요
심판
부위
수영
PC
평등
이념
라운드
##총리
스페인
오랫동안
거두
경비
수수료
상인
당한
초점
신한
일대
증시
##해서
강사
##조합
장사
##철수
지위
정하
할아버지
내내
63
성남
의학
##로운
호남
모으
농촌
만일
에다
##르트
마이
생물
바른
조례
대결
알려져
어쩔
원하
신라
##뜨리
반도체
교환
인용
##비아
간다
파견
포럼
로써
들이
85
마트
용어
84
대처
하여
파이
보일
로봇
에어
욕망
개정안
대립
엔진
66
##ut
조화
마침내
정지
무한
냐는
##려야
절감
불교
그리스도
지표
km
건데
겨우
사안
배당
배려
지출
##연히
전원
추억
농협
동양
오바마
외환
에서부터
부당
합병
돌리
##학자
##서트
직전
마당
서양
확신
담보
답니다
대폭
노사
실무
미세
만날
깨달
##ir
휴가
긴급
고구
그래요
고도
현안
된다면
번역
바람직
실내
72
응원
평창
##드리
테마
아트
##에도
들어간
끼리
무조건
십시오
##일리
99
ㅠㅠ
진료
어쨌든
##ap
정서
기지
벤처
눈치
연령
아닙니다
라디오
대만
In
장난
제주도
못한다
테크
결승
파크
##op
##머리
4000
데리
스피
성능
관측
끊임없이
##로스
폐기
노무현
농가
운행
무게
한마디
600
노트
St
고령
유출
융합
냐고
침해
푸드
접촉
##ew
왼쪽
뜨거운
충돌
호기
기름
단속
변하
손가락
영혼
선임
가시
일으키
이정
타격
##레기
김성
안철수
키로
익숙
박정
교실
수치
는다면
고대
협조
61
정착
##ity
편리
캠페인
적어도
위대
테러
한정
통증
개설
연관
상임
수주
깜짝
간부
집계
세포
리더십
국내외
라서
미만
근육
kr
상하
출입
와인
드러났
쓰레기
청약
홍콩
##웨어
나눔
도대
##러지
브라질
구청
용인
##oc
그치
지혜
촉진
보존
느낀
도망
장군
##바닥
목사
하우스
신앙
네이
지켜보
달하
걸려
영향력
도대체
권위
1980
맞이
끝난
플러스
계급
런던
무렵
인민
중대
선진국
유아
손님
쉬운
보편
일어난
선두
고맙
몰아
창작
선사
중공업
브리
콘서트
가계
신선
##건설
대강
적응
고생
감성
무너
##권자
곧바로
열린다
62
불가피
뮤지컬
정치인
그럼에도
상가
기쁨
고발
구상
정확히
부사
구제
고문
문명
SNS
당사자
살짝
##단지
유니
국정원
없애
피아
벌어지
소수
적당
명품
컨설
프레
디스
초과
천연
일치
좌우
민원
앨범
성명
##니어
신기
IC
획득
공주
정식
구성원
CJ
##지사
선보이
유학
임기
고전
입법
건조
사로
직무
##ED
##가스
지대
##웨이
추석
오른쪽
퇴직
68
단장
대법원
##거렸
그렇지만
수집
##래도
양국
공학
유발
진화
파업
항목
해명
수리
##ㅋㅋㅋㅋ
다름
보급
내린
한참
급증
가볍
든다
소위
알아보
뒤집
비정
트렌
욕구
사령
어려워
확실히
67
비서
주최
입지
취약
올린
김종
젊은이
박람
##레이드
계시
줄어
아닐까
##카오
에겐
동력
현행
신속
훼손
주자
되돌
연설
한번
입시
선도
일어났
인문
시범
아라
대학원
스위
##스티
더군
찬성
야권
남기
아저
##스토
이중
조달
임직원
죽이
유대
1997
1998
##러진
아프리카
주행
싸우
챔피언
1999
최소한
구미
과도
용역
청문
자본주의
아웃
만화
##im
경기장
빠진
출산
즉시
모색
그대
화성
가만
개봉
빼앗
아저씨
가방
사로잡
자문
수백
##나다
법무
일자
천천
##영상
침대
입증
논쟁
품목
한가
아무래도
거짓말
멈추
결의
일방
진주
GS
어울리
95
한지
천천히
##힌다
강연
들어왔
전주
어쩌면
고유
아마도
주간
오직
191
결심
도구
입찰
신학
은퇴
거치
의자
유행
트위
여의
묘사
굳이
감염
칭찬
테이블
경매
6000
경찰서
장학
##생활
불렀
##도로
나타난
기금
뚜렷
과일
여서
장식
휴식
남부
재능
제자
이어졌
섬유
기운
이용자
상무
상실
정성
고마
음료
연봉
스케
때로
흡수
트리
물류
복원
전해졌
어두
미친
담긴
당부
너희
노후
박지
##마스
이혼
분쟁
미니
일시
존중
금메달
8000
##온다
선출
##그룹
군수
밀려
통보
예금
74
플랫
구현
떠오르
도내
재생
집권
문서
소외
##항공
안팎
##시다
김태
지리
진리
돼요
남겨
음성
계좌
저장
##규직
김해
재건
쳐다보
믿음
800
가공
부활
시계
73
텔레콤
##문화
편하
변수
71
비정규직
##다리
황금
인연
구도
한쪽
##어버
신부
신중
연맹
가질
좋아하
부딪
현황
77
골목
타당
참조
소형
을까요
극단
급격
고양이
빌려
그나
국방부
축하
출근
병사
파워
수지
필자
갈수록
급여
셋째
지도부
동영상
120
점포
워낙
공헌
최우
이스라
가상
요건
이리
이걸
그쳤
챙겨
올바
군인
한때
충족
##and
지연
입구
민중
##워하
192
트위터
태어나
커뮤니케이션
저런
Ch
취급
비행기
화장실
높여
폐쇄
블루
이스라엘
to
배상
김정은
이슬
서명
온도
안심
양상
진지
흔적
국어
대목
데려
무척
캐나다
청사
세웠
저기
여섯
박람회
##증권
영웅
매출액
동남
바위
사단
둘러싼
의해서
드릴
시달
김대
종시
유로
차관
주차장
전후
##th
69
심하
여겨
진영
아가
우울
도쿄
의정
경영자
공인
열렸
장르
될지
코치
철강
보험료
마디
상생
들어와
휴대폰
십니까
가르치
유산
변신
##ab
케이블
76
구글
공제
앞장
지명
각국
주부
타인
실정
농구
식민
입술
미술관
채무
지나가
환영
평범
후배
셔서
용품
메르
담겨
엘리
##산업
구경
소스
평양
스크
비타
격차
연방
유치원
기후
과세
##시장
##비전
##낸다
돌아왔
나설
향한
##로그
복수
유동
영장
쏟아
학회
재벌
대행
지진
SBS
스파
간접
교육부
모니
그릇
전시회
새끼
부작
깨닫
비로
190
체포
색깔
먹스
기상
가벼
틀림
일관
자국
##라리
공략
양산
##게요
영남
체크
블록
이민
넘어가
진학
이젠
메이저
조항
참가자
민감
7000
##ame
강점
뷰티
사드
널리
으려고
넘치
침묵
해고
으시
마친
##덩이
AI
마땅
부각
88
원주
치르
오해
푸른
KIA
마법
충실
중도
탄핵
신입
섭취
관념
중동
##ra
체력
일기
선전
엄격
##ie
조합원
거절
확충
적발
눈앞
동맹
치즈
##CD
유권자
그분
##라고
발전소
78
홀로
충북
영입
여지
어리
무용
진심
02
대개
패턴
관세
던가
무사
정작
##우드
살려
환상
충청
##크스
주기
갤럭
개헌
카카오
유력
날아
법칙
부끄
갤럭시
총괄
상환
구원
700
맞서
문화재
우유
동해
불행
##들이
종종
해질
##회의
시급
붙여
파티
패배
봐도
마이크
진로
이주
연료
초래
전당
징역
배달
받아들여
진흥
장수
붙잡
온갖
대상자
개통
반성
드디어
스카
대거
보여준다
##컨대
##거래
##립니다
종료
강요
중반
한층
심한
##ea
스런
봅니다
페이스북
상사
컨설팅
계단
##CC
2020
동작
##디션
언젠
실망
체육관
어둠
무언
파트너
우리나라
욕심
##PG
도약
계절
압력
박스
시킨다
까닭
시정
수분
세부
베스트
징계
##져야
엑스
재개
으리
두드
의뢰
탄력
산하
텔레비전
재배
중구
클래식
철저히
플라
자신감
모았
이닝
주석
##브리
소요
동화
스키
##TV
승진
방학
비타민
내려가
공시
화물
##총장
통치
경찰청
기법
비로소
신세계
광주시
당황
가요
두려움
하여금
촛불
1995
즉각
몇몇
감상
처지
왜곡
청문회
금방
교장
고리
붕괴
토론회
개척
세운
성취
가입자
오프
육체
당당
전지
사이버
오피스
##천시
심화
수급
꿈꾸
신발
문의
내면
구별
##어질
줄여
어려울
벌였
들리
##하우
영광
##어놓
PD
##수수
영화제
내수
깔끔
과감
모니터
어우
금속
허위
장악
재판부
순서
유입
원정
앞둔
멋진
오랜만
기대감
외면
임신
테스트
트렌드
즐겁
98
참사
##아리
특유
성폭
##나이
역전
경상
치킨
손상
도달
##이브
합류
지지율
한숨
##본다
##사고
고백
디스플레이
기재
기아차
상당수
재밌
박수
그나마
충전
화이트
풀이
합동
##려서
사회주의
해군
##하여
그야
재난
규명
갖춰
예외
당일
의결
언젠가
이른다
원가
추적
1970
인데요
상승세
밴드
EU
자세히
고수
매주
정수
설문
포스트
꼼꼼
대금
비평
강도
서부
소음
관료
사업비
마크
가깝
##ver
동구
입니까
아름답
##퍼스
##저히
농사
떠났
마라
형상
방사
매니
산책
존경
시골
바깥
리조
작동
식단
랜드
후기
상공
답답
빠졌
이종
억제
소프트웨어
극대
흘리
도민
김동
##ram
향하
##IS
레드
##30
보육
무관
관절
##번에
81
아시
행보
임무
압도
##레인
들어갈
제조업
82
학술
즐거움
면세
부사장
##리스트
케어
쇼핑몰
원고
간호
co
귀여
회관
건가
이어질
CC
신인
김현
위로
공중
자존
옮기
걸렸
최적
79
증대
모를
특검
탈출
해제
가전
노하우
동북
로드
건전
##관리
베이징
대륙
태어난
한미
유해
가해
채워
중점
고사
동참
착수
산업단지
##긴다
탄소
아끼
짐작
마사
##ion
나간
용서
##소득
1996
대외
확률
판정
돌아온
##단체
타이어
##렇게
##든지
신비
였으며
끄덕
연예인
선보였
앞세
북부
운송
끌어올
그간
구멍
봐요
형편
안타까
보전
탐구
넘겨
비디오
각오
참으로
원자력
놓여
급식
성실
소련
데일리
지침
일각
대체로
IM
실시간
어르
모래
유연
MB
막대
연휴
##의자
다를
더구나
선교
핸드
특화
다스
대량
부작용
##ff
잡지
##로지
상식
증권사
위상
가사
운전자
애정
돼서
소금
86
예쁘
폭행
자발
오가
빌딩
중독
유전자
독재
격려
##르크
반박
부드럽
메모
돌아보
지인
일원
고르
비하
코드
##ㅠㅠㅠㅠ
##둘러
상금
공고
준공
가속
한강
전파
하얀
농산물
인천시
해진다
분열
87
잡아
##랑이
이룬
미칠
본래
##포르
올바른
고구려
진상
202
일어
가맹
연애
저작
가만히
그야말로
##tt
일본인
완공
리조트
name
무장
9000
명성
소지
비대
매치
호수
매도
해상
1994
댓글
비례
높였
##아이
특별히
소환
##어진다
연상
아이폰
시중
부산시
라이프
전설
금호
냉장
어머
수천
국당
지불
눈빛
상자
##트리
이마트
차기
##시코
메이크
살아남
연인
96
만기
##져서
이럴
시상
아메
건지
하위
이모
기울이
떠난
##운동
아픈
친절
슬픔
##스티벌
먼지
골프장
중시
##다수
페스티벌
포스
일지
실태
워크
어르신
##ard
평택
열차
이슬람
97
머릿
최상
유용
서술
필리
비서관
죄송
걸로
명단
강릉
달아
신장
농장
돋보
구름
남쪽
##TE
예쁜
붙이
걸린
맥락
비싼
노리
독점
신임
##바지
세탁
일곱
태국
착용
보조금
배터리
원천
코너
따지
수록
허락
챙기
지부
용지
##ia
난다
도발
금강
감자
가이드
주소
김재
명칭
다가오
코스피
넘기
조용히
거친
안양
사연
모순
귀국
피로
예능
부리
살해
심정
##리즘
한창
가르쳐
도중
회수
라면서
##ep
##싱턴
주류
성립
##든가
83
##스키
부패
납품
##받침
행정부
한글
혈액
기조
아카
도청
사라졌
바보
대대
부하
캠퍼스
단체장
91
##가포르
해수
스승
행진
잇따라
리얼
스티
여의도
주먹
헤어
이겨
줄기
##tic
누나
##가운
##스턴
즐거운
##처럼
싱가포르
##어내
제고
애니
명절
마켓
한도
##스탄
청산
치유
시집
가려
정밀
관행
권고
##──
플랜
거울
수면
아픔
솔직히
용산
89
줄어든
무력
요원
게시
물품
납부
누적
만만
입사
마산
청주
해안
책상
연평
에는
##바람
생생
최악
위축
라니
무언가
##디아
전담
##iv
태평
당원
##풀이
낮추
후회
한두
국세
정면
둘러싸
st
늘어났
바닷
아쉽
시공
감추
개소
월급
차라리
천억
FC
250
마쳤
180
고시
표면
애초
뛰어나
무선
##루션
먹이
와이
김진
실체
명백
선보인다
김상
학력
##ke
오페
일반인
빨간
클린
나란히
메이크업
워싱턴
비극
국면
아름다움
생일
얼음
##바이
돌입
패러
쓰이
절실
서서
세미
협동
##먼지
##로드
해체
글자
포도
조리
인테
되찾
당분
탁월
대원
겨냥
놓치
GM
나타난다
단원
엔터
모른
92
골라
통장
00
발효
흥분
##테크
사냥
태양광
분산
전선
흔들리
북미
자칫
고집
실리
주저
순이
작곡
기술력
경로
거래소
내밀
전무
부가
94
도서
모은
##ail
어라
드림
실종
모시
뒷받침
구석
##해야
출석
입원
##느님
강경
미터
어린이집
재건축
비싸
채소
시나
방치
시세
됐으며
스튜
멕시코
인테리어
즐겨
고추
재원
곤란
증언
내지
차장
양쪽
춘천
어떨
네이버
고지
유혹
감축
어릴
중국인
철거
향기
##est
##성장
노예
담당자
pp
보인
드러냈
이야말로
실용
하느님
단단
여권
찾아보
서해
급속
숙박
##러져
적정
중계
로스
재정부
채우
공작
##uc
##ell
명시
분당
부드러운
더욱이
클라
의류
저소득
바이러스
김포
그리하여
뇌물
주방
##어리
사무소
함유
민심
##어넣
조만
##ist
출장
Pr
##피아
기호
탑재
회전
외모
나쁘
귀족
강세
따위
배운
간주
##키지
양자
수렴
놀랐
포트
갤러리
들어온
대박
절망
기온
파일
편의점
철회
출간
위탁
##ok
증진
##네시아
퇴근
프라
범행
쟁점
놀라운
대다수
돌아와
최신
코트
타워
정규직
김경
논술
##ill
동서
탈락
그림자
타운
추모
신사
산림
빛나
패키지
오페라
원유
총재
사찰
항의
디자이너
일요일
발급
궁극
직장인
조국
원료
93
##eg
부적
발주
자사
떠올랐
03
김기
학위
생길
안동
못지
아시안
나아
##스레
새해
기적
명회
모터
버려
호응
##타인
스위스
면역
##현진
책임자
세제
IP
##용차
터미
화폐
심해
연합회
원활
던데
사자
환경부
이뤄졌
이끄
기차
선거구
명분
승객
오토
다행히
##잡이
들여다보
th
무산
누워
포털
은가
취향
면세점
예컨대
189
##느리
발목
수험
김대중
대주
연패
더군요
오일
빠져나
여사
예선
야외
지경
NC
자부
##ip
인도네시아
아베
절대로
스페
피고
##꺼번에
한꺼번에
대해선
길이
사무총장
조만간
치러
표명
나선다
미세먼지
박정희
백만
고스
건수
피곤
내정
교섭
건의
정말로
일행
양념
열기
##동강
특이
##our
창문
##토록
##구리
전역
가라
세일
##가루
억울
날개
지냈
05
벌어졌
드렸
성서
이를
판매량
크리스마스
1960
당분간
##제품
측근
갈라
누르
프린
전적
수당
이영
꼬리
##ob
당내
주재
사립
김연
서서히
소원
간판
북쪽
넥센
관람객
머릿속
병행
리스트
조지
IS
인격
응급
사인
으러
당해
흥행
간식
용도
##all
온몸
우위
거점
음주
던져
900
공기업
동계
남겼
페이
동아리
피자
재고
리스크
##ge
##ttp
식민지
앞선
버릴
선행
##직자
##러워
뒤늦
접속
자존심
주사
스러워
스탠
화합
##대문
토요일
http
이수
낭비
필리핀
포르
##덜란드
교정
도저히
다룬
위성
전교
문구
페이지
관여
중개
내보
스타트
##어붙
멀티
항공기
건설사
차질
장학금
##ub
인형
공익
장례
1992
##art
뛰어들
네덜란드
과학자
LED
크루
자제
상주
바뀐
상영
생애
중고
외치
단다
아냐
터미널
비결
축적
염려
확립
솔루션
실점
어차
될까
##구역
서둘러
##DP
불거
생계
괴롭
벌금
내달
차세대
대단히
플래
야간
안경
한동안
창고
무지
단축
착공
힘입
초월
1993
공정위
어차피
지낸
니까요
그라
계란
추락
##걸음
아나
아쉬움
스프
독도
사후
송도
고조
어려웠
등산
정통
터키
합쳐
불황
텍스트
날카
뱅크
최순
공업
고장
조선일보
종일
강행
늘어날
시술
cm
##러드
강아지
구호
숨겨
콜라
순천
투기
벨트
골드
슬로
사우
다짐
잘라
한류
커플
김용
or
억압
간편
세미나
보좌
양심
서초
바퀴
냉장고
들어선
중견
상속
국산
비유
발라
##집트
스웨
소주
해설
결혼식
배정
무서운
스크린
예술가
감수
응시
출판사
벌어진
음식점
펼쳤
##핵화
이데
##미터
마스터
이집트
왕자
비핵화
남한
지성
처방
공세
소용
당뇨
달랐
별다른
폭탄
이태
파주
뛰어넘
견제
최다
동향
창립
##둥이
몰리
티켓
무덤
브리핑
분할
일환
의상
써야
시트
천재
전사
고무
노동조합
조약
국무총리
사업장
국경
주름
안산
번지
food
영감
이루어진
세련
성질
##이즈
IB
행태
시가
재현
지검
조세
현직
일체
동남아
##ine
주유
kg
주고
시신
똑같이
둘러보
현역
가벼운
부천
떠올리
로비
구두
대지
냐면
특위
좌절
쌍용
호기심
관장
민생
과잉
니다
다녔
염두
식량
아닙니까
유전
출자
성숙
교황
김정일
기다렸
류현진
순이익
낯선
장착
의약
태풍
##데이
입맛
면제
철수
소감
증세
01
for
뮤직
포괄
등록금
달라지
지법
나와서
지났
한우
##니즘
IMF
영토
시나리오
단점
주한
교통사고
역설
태극
연승
늘려
넘어서
저하
자회사
1500
소매
부스
데이트
모범
계신
시켜야
베르
감당
코스닥
##하나
맡기
무섭
남긴
금감
오류
가짜
트레이
백제
단백
낙동강
교원
주고받
얼른
노동당
법무부
대항
공방
따져
치매
맛스타
케이스
반짝
##ork
신념
직면
착한
노릇
찾아내
거뒀
일어날
추출
낸다
명문
##메이션
근원
그래야
언더
임상
##stag
양보
오로지
물고기
갑작
감지
안다
##ev
유족
수산
타이틀
신성
언덕
떠오
소셜
##저기
미쳤
LH
아리
확고
프라이
액션
강렬
적립
마늘
혈관
속하
터지
여신
여기저기
이윤
새겨
##뜨렸
증인
으리라
##일으
새우
불러일으
대조
위장
인종
급등
제발
오피스텔
천하
꼽히
부도
##시스
나타냈
전신
지난주
내외
항만
의외
인디
꼽힌다
타입
정답
바지
돌렸
여주
국물
이치
첫날
청정
두루
재활
강좌
##관계
지능
비치
이뤄진
##톨릭
색상
한진
부총리
중순
억지
유망
부양
미국인
범인
살피
외국어
예의
바둑
후속
문득
과시
평론
피아노
일부러
몽골
##━━
고스란히
편입
도모
더러
음반
멘토
##ud
세무
목격
으려는
보여준
신혼
오를
##런스
결단
불안감
종로
장성
흑인
##아내
계곡
찾아오
##80
요약
관중
안타깝
감기
남아
위안부
정한
영원히
한결
유효
포착
어두운
##화문
아닌데
몹시
앞장서
김일
수성
활력
연세대
더블
협박
발명
수령
종전
개장
1991
틀림없
잠실
##올로
FA
김수
트럭
폴리
수시로
증정
달한다
130
버티
조상
성경
도박
방송사
불량
몰래
당첨
서기
여객
New
##빨리
글쎄
매니저
##놀이
창원시
간절
건네
감옥
명의
##ht
마라톤
기쁘
전액
지목
흑자
느냐는
마약
업자
전술
정세
바꿀
양도
공화국
NH
이라크
기다려
신상
대국
이분
어느새
이병
육상
단백질
고려대
상세
##다지
인체
보낼
##연합
경제학
이마
던졌
##OC
사격
어지
지각
##위원
터져
블로그
제휴
승용차
상권
내놨
연다
##시간
##렉스
내주
아스
스코
##인지
##스토랑
레스토랑
주머니
우연히
촉촉
반려
합성
매월
경관
마스크
잃어버
토끼
해라
우린
반전
미루
빈곤
시너지
화해
마구
모이
무효
드물
우정
시달리
유적
##트로
혈압
식구
가져다
농담
끌려
금감원
집착
소극
내려오
공직자
무더
취미
힐링
달콤
단호
어떨까
점령
생리
노총
##ran
인쇄
개시
아가씨
광명
본능
허브
약물
이순
##ment
자영
병력
무죄
##NG
피할
##올로기
내비
접하
##급식
도지사
기성
국비
수명
줄일
랭킹
인성
불신
지붕
##ort
살림
의정부
##무성
무상급식
인턴
메르스
패스
내세우
1988
조종
하도
반찬
커뮤니티
견디
조그
오케
부른다
네티
특별법
바쁜
가라앉
##if
남구
고인
배워
가맹점
이데올로기
이산
메인
##셉트
은지
접목
소득세
##데미
학업
본선
으신
우연
##ial
보충
발간
문건
대접
등판
소홀
운항
건국
터널
북구
바쁘
배웠
방위
##닉스
on
피우
부재
아카데미
목욕
일선
약화
육군
샐러드
##지능
도리
싱글
탄탄
##버그
##마크
다큐
잔뜩
남양
학년도
약한
리모
출생
네티즌
호랑이
울리
장미
##ure
##⠀⠀⠀⠀
산소
헬스
인공지능
규범
온다
교차
우즈
였으나
등지
##쟁이
책임지
원조
등기
수위
일으킨
수습
속성
개그
가하
분배
정황
##리티
##랍니다
관해
자격증
##로우
여덟
되풀이
감싸
재학
댄스
토크
수년
##고리
착각
수소
아홉
노동부
물음
로맨
##DI
타점
##주얼
노란
동북아
##들여
변형
무인
발레
1987
저널
올릴
##오프
상한
110
머무
한양
##주의자
김광
으셨
미용
한국어
##구니
생산량
1989
도둑
삼국
토록
운동장
김민
여왕
파고
거세
걸친
##세포
수신
프랜
해져
중재
위생
숙소
맞대
무거운
생선
부추
성사
아무튼
높일
삭제
수확
모금
동행
구청장
따라가
녹음
기뻐
면담
김지
##스트라
먹방
신축
2019
Un
사흘
##ate
왕국
체중
건축물
제사
무너지
키스
가중
스튜디오
예산안
양측
파도
시립
경영진
개관
박영
공자
##식간
반사
열려
그다지
BM
성형
##거나
하천
##ue
그만두
##지니어
체질
낙찰
##릅니다
동성
벤치
전기차
패널
지르
안쪽
단행
헌신
##NA
태평양
감사원
Com
베이비
열매
도요
내릴
장인
어딘
라기
소유자
이어진
절약
현명
최후
달린
삭감
다가가
물어
군데
풍성
유물
##af
전직
##FA
광양
애니메이션
ㅎㅎㅎ
결성
커졌
청춘
##걸이
느냐고
국적
소멸
만성
느껴졌
호르
보복
##두르
신종
접어들
목포
교도
이사회
##stagram
발길
인치
관할
##무지
중립
주어진
모형
헤드
이대
수강
아이돌
히트
##외선
담론
하나하나
사명
##워드
##브리드
드립니다
##드로
Con
아랍
못지않
축산
지역구
감면
합작
웨이
임차
진전
하이브리드
광범
추상
##셔널
##저리
정무
선제
이지
편견
인접
옵션
처장
경찰관
지원금
스웨덴
상품권
면허
가죽
전락
특혜
용량
선포
맞춘
항공사
하드
끔찍
유인
통로
함부
민영
불꽃
악마
파란
왠지
표지
계승
해법
약자
날짜
사형
시체
타임스
치아
계정
순식간
영리
셔야
안성
충성
당기
찾아볼
미지
권유
엇갈
강해
레저
배울
쏟아지
야생
내각
종업
교훈
그런지
복음
여고
동쪽
중년
에어컨
가리키
추측
기어
관광지
아산
제의
빌리
가까워
우스
가톨릭
유독
물러나
선명
보리
갈비
통행
제어
꾸며
추격
밀접
바랍니다
대한항공
시비
효력
보강
영주
응답자
열풍
OE
거둔
소망
MO
##ld
모인
최강
물려
지상파
도시락
이득
일으켰
애국
하하
스러웠
막상
러브
가문
가져오
동아시아
서점
하수
신탁
약점
##버트
드래
ST
뜨겁
핑크
사이즈
재직
##국수
광화문
##그레이드
GDP
쇄신
워터
일일
열쇠
종업원
업그레이드
울음
재발
부근
사라져
해결책
배송
입력
한전
마이너
관심사
아하
저소득층
표기
과자
스킨
야채
태어났
서방
밀양
아줌
정국
클리
마비
바꾼
공영
여파
안방
게재
복구
##의식
배분
밀리
신동
고쳐
스피드
정교
서쪽
추첨
자영업
요양
언론사
사라진
##유산
출현
양반
국세청
주연
정유
아줌마
전도
재계
거품
올라오
입점
나빠
활기
부를
당선자
##파크
먹거리
버린다
##센터
항소
분담
US
외교부
강남구
검진
내장
프로세
##조리
한자
SM
유방
##로리
단편
갈아
빨라
일수록
화가
보증금
반해
수련
급격히
타율
해운대
백악
안주
당선인
내려놓
메일
거실
걸까
월세
대왕
티비
##iz
동아일보
응용
드러난
아메리카
풀리
지극
치우
한방
##PGA
140
##니스트
홍준
돌아갔
범주
유교
##저스
들렸
모험
기증
망설
생성
배우자
단말
대치
폐기물
드레스
차려
그까
대주주
장벽
참모
단정
떨어질
수질
##se
이메
##60
##ang
준다는
군부
##ich
상상력
구사
솔로
명목
페르
##타운
##유럽
넉넉
일일이
발매
##oll
inst
##ore
혼합
악기
끌어들
행운
##밀히
##동생
코미
협업
의약품
감히
열악
톡톡
자매
위해선
대세
좌석
너머
어음
중기
호르몬
써서
만주
낭만
필름
##시마
각기
##aily
나타날
매운
유감
일산
횟수
유승
벌인
경위
##ak
관리자
복용
타협
사막
기숙
민정
와중
사방
택배
피고인
##레이션
등등
전철
아이스
방금
##밀리
희생자
홍준표
##티나
트로
분량
상정
중얼
성당
으려면
비추
교역
김병
저서
보물
승점
시상식
아아
십자
마르크스
스쿨
갖췄
초등학생
LTE
게이
일제히
다면서
160
제작진
업적
간직
신나
제법
공백
공존
고가
한눈
나눈
##차례
똑똑
AP
든든
박차
집값
이메일
요새
모의
이라도
이뤄질
지루
쌓여
##배우
정화
해변
##ee
재판소
노벨
레이스
내걸
실은
##카락
1950
추위
요법
선수단
머리카락
증여
수상자
흡연
익히
이쪽
탑승
애인
##슬러
사소
회피
우대
사각
베이스
##쓰기
원화
##봐야
##다임
간호사
기르
발의
글씨
패러다임
가령
광범위
중부
향수
밝혀졌
햇살
산정
엄청나
원대
애요
오프라인
##일랜드
대충
주역
동지
##두리
##마토
어리석
브로
단절
렌즈
선보인
차분
Th
##트라
파격
부시
##개발
짜증
출구
지식인
소나무
안겨
통신사
조율
침략
SU
킬로
##man
유세
법조
금품
플라스
사령관
석탄
천문
달했
버튼
드라이
구리
산단
전이
##내리
정해진
가루
휴양
예배
강동
##드라
백악관
책정
아닌지
였을
도출
출제
소모
전방
으론
##사업
그해
거칠
때리
내신
출동
찾아왔
치명
횡령
느낀다
##지부
어렸
##ung
가르침
박원
기둥
사모
##러움
교재
보험금
배후
두려워
##인드
##ss
김일성
이듬
##로움
교통부
교양
막내
##70
수색
농어
온실
수고
보석
명소
돌보
획기
사교육
자부심
오락
지나친
치솟
지옥
까다
아님
##40
장려
드린다
##ber
경사
금요일
재해
튼튼
구장
달래
정복
##리포
잔치
막판
##수수색
에코
상용
KTX
##고속
받아들일
압수수색
##옵니다
회동
인건
콘셉트
연이
이루어져
벌여
버전
인문학
##토리
누릴
놀란
터치
ㅜㅜ
부착
다채
외쳤
주유소
반갑
나뉘
처녀
치밀
들으면
라이트
구해
예언
서사
188
LA
발상
나노
추산
박주
##임스
선비
이듬해
기세
구절
비트
엑스포
귀찮
##러졌
반환
고성
도우
그늘
자질
척추
이룰
##잖아
##르르
소집
인건비
최우선
##ence
법령
비단
##olog
유료
##매김
본다면
새삼
##ong
동굴
자리매김
달렸
각지
흘러나
어색
공연장
귀신
##비드
화살
사료
기울여
청원
되살
##테이너
보람
천장
그런가
원작
향했
센서
쓴다
들어올
고치
매트
수송
분단
키워드
##신문
원형
프랜차
외출
배신
##셔츠
엔지니어
되돌아
##저트
비자
기한
##교통
생긴다
야기
실감
##금리
차트
자립
외곽
##베이
저렇게
리스
메달
북측
프랜차이즈
원금
앞세워
##바이트
An
설사
CCTV
다름없
남용
인삼
흥원
신생
FI
껍질
끈다
한국은행
나눌
토로
미흡
좀처럼
합창
극심
다닐
옮겼
중산
고는
협동조합
클래스
왕조
감탄
강변
손자
배구
푸르
디저트
할수록
화두
물결
시어
진동
이뤄지지
##머스
트랙
BMW
가져가
##ook
ICT
침몰
매진
제임스
시리아
정시
배포
부합
CD
##IC
둔화
돌아다니
공산당
실효
베를
관하
국민은행
양파
중지
정직
119
##행위
놓인
이적
이원
○○
잡히
초콜
백신
MC
청탁
케이크
미스
발걸음
농도
외식
행하
국악
추경
##업자
간장
차림
탈당
상향
이력
피의자
##집니다
인자
##코올
사도
천사
이어져
신재
모씨
파장
그루
전임
보행
DM
##ian
##서리
공군
월요일
코미디
##ain
임대료
더라면
옮긴
##운서
암시
내역
충동
심리학
##리케이션
##PS
걸릴
선거법
백인
##tive
잠재력
아나운서
장기간
이만
단식
김연아
은혜
이례
눌러
비명
해야지
식탁
공조
대략
괴물
##아웃
중복
숙제
기업인
검정
송파
중세
##시설
##걸리
소설가
달라졌
의제
구제역
가치관
맡겨
을수록
청취
져야
갑작스
제철
크루즈
##몬드
폭넓
일가
목록
ch
con
는구나
비틀
윌리
엉덩이
광복
사설
산출
개개
발자
##경북
복무
골든
막걸리
강정
정립
방영
달려가
쾌적
만족도
필연
##ll
평론가
매개
모드
차가운
지형
펼쳐지
우울증
일련
##ear
플라스틱
잠수
세이
재킷
에다가
인과
열릴
리듬
##ith
일으켜
이어진다
간격
##널드
난민
전격
풍요
OECD
동호
병역
서정
학대
인가요
글쓰기
동포
##임금
ㅠㅠㅠ
속속
유진
파산
한겨
성폭력
컨테이너
해치
그토록
봐서
실습
오브
제이
반기
06
길래
##ov
흥국
국수
산다
몸매
안개
온통
##end
액수
알코올
며느리
설탕
신한은행
몰라도
혼인
수차례
파라
어선
전교조
고고
당대
##어요
04
렀다
전수
어떡
국채
상해
낚시
전송
신약
##원장
햇빛
올라갔
영구
플랜트
연동
회화
스토어
철학자
##산부
들어간다
한겨레
클린턴
스페셜
총수
합법
카운
연비
연구자
역동
종사
출국
수혜
헌재
정조
1986
서장
상관없이
##iet
보살
엉뚱
종사자
다시피
##폴리오
긴장감
광산
적혀
잉글
제로
포트폴리오
수호
함부로
역임
수여
쿠폰
달라진
분포
##사리
딸기
봉사자
특강
맞물
매번
상의
민속
별명
실전
오스트
유성
약해
천지
농림
##위원회
주권
수장
주전
##평가
바꿨
좌파
##와서
##연구
마이클
김선
교부
이어서
알파
여전
걸어가
에이스
부풀
다가왔
군주
학계
##실험
##ory
일간
귀여운
우세
배추
끊이
심상
유머
위법
뒤따
##무기
우물
##스크림
아이스크림
퍼져
##소연
##IP
대여
해산
홍수
유래
조회
고난
사망자
간섭
넘쳐
수원시
오만
휩싸
김장
유의
생각나
돌아갈
자유주의
오케스트라
간사
ET
공통점
이인
홍대
봉투
##레이크
그제
##베이터
볼거리
꼼꼼히
침입
브라운
숨기
팔리
통영
떠날
부유
박지성
##소시
조속
털어놓
관건
메리
de
비닐
##버님
라이브
후쿠
퍼지
키즈
연도
으라
폭로
취해
리서
변했
평일
상원
##난히
변함
그랜드
보름
친화
계약서
우편
찾아온
유가족
업소
극히
인내
어긋
장난감
이대로
복제
초록
##멘트
양주
##경기
휴일
커질
이길
배고
신흥
잡혀
제보
거꾸
트레
교감
오이
광부
적시
##ant
가산
박종
탐방
##ark
시야
##릭스
방통
전복
이해관계
날리
내다
지역민
농성
볶음
조카
스카이
으니까요
지원자
대사관
김무성
자외선
##트롤
천주
여름철
온천
기각
스펙
신랑
훌쩍
스물
##볶이
산학
아일랜드
매립
고독
모니터링
밸리
101
펼쳐진다
초콜릿
도요타
##바다
말레이
##관위
볼까
혐오
이뤘
우회
적성
빼놓
대법관
냉정
탄압
가져야
넘어섰
급락
겁니까
걸맞
놀랍
성장세
진도
부엌
##치기
차익
입국
##ust
단말기
크로
김승
##려고
리서치
최경
변해
성찰
고래
해임
거제
손쉽
쿼터
구워
우아
수직
##ly
고속도로
##ass
저질
체인
경전
관해서
공문
##커녕
그쪽
나비
손바닥
딱딱
적대
스타트업
발음
아티
처한
지우
##방울
스틸
여학생
양육
전진
##운다
##버리
서른
재테크
##for
##바라
##같이
##마다
바디
미드
사면
클러
발탁
어때
반란
대입
첨가
넷째
핵실험
마음대로
현관
수필
##ond
##먼스
전문점
대수
지문
천국
서버
장교
사나이
하버
은데요
약하
##튜브
어째
위력
공감대
##욕장
플레이오프
노려
##나물
주무
선원
뜨거
엘리트
유튜브
##자원
당할
카이
보습
다지
성령
나마
슬픈
##ER
##ast
성폭행
박성
수제
마사지
상기
기장
##공항
안건
박찬
오사
##ational
##ry
진정한
이순신
알렉
경과
돌이
1985
은근
서식
##센티브
인센티브
모른다는
양극
영문
감독원
아르바이트
보스
##per
경호
선보일
밀집
떠들
MOU
활짝
단가
조짐
농부
총력
이화
##크라
##고사
##소문
돋보이
마셨
통산
백지
할리
##물산
##동력
경유
괜히
불빛
편한
##av
초보
접근성
사제
참석자
직선
표출
거꾸로
신하
본성
상관없
소서
베를린
줄곧
섬세
파문
국왕
선조
사양
접시
분과
맛보
잠들
떡볶이
정의당
셔츠
김주
황당
실리콘
아쉬운
만점
씨앗
##스카
노르
고작
오버
교대
##포먼스
회원국
##수기
집중력
퍼포먼스
##키스탄
삼성물산
탐색
미분
세입
미끄
가로막
위임
해경
권역
##age
마운드
유비
##리포니아
섹스
서면
육박
체감
밥상
토마토
박태
##오스
올레
마이너스
LCD
##ism
멈춰
캘리포니아
자이
입체
SUV
영세
배수
마포
짐승
검거
줄줄
쫓겨
모호
취한
납치
허물
쓰여
##감치
문헌
택지
##ack
스무
##찌감치
컨디션
줘서
말투
음모
양해
간단히
대인
명확히
합계
깊숙
말리
무겁
창단
프로모
버섯
잠정
##가리
이불
재선
발판
두부
##테스
급히
이경
반지
손목
상수
솜씨
객실
다투
부수
자책
앞당
포지
##oh
이노
잊어버
했으니
시속
보좌관
170
랍니다
불쾌
머물렀
창구
말레이시아
항구
##EA
요금제
치료제
수다
원한다
거북
전경
들어섰
이승만
몰두
UN
##다듬
여보
마른
다툼
임의
##OS
중소형
문인
본회의
큰일
##호텔
친척
창업자
지체
전월
##테일
##징금
특권
크리
저절
용이
타선
만지
엘리베이터
크로스
KA
후퇴
티셔츠
화보
력사
말라
간신
동정
시카
진압
저절로
가꾸
총액
으라고
장단
게시판
동국
##살이
노화
##동자
##그라
한잔
MS
마신
세수
마세요
관계없이
내재
##FC
대중교통
350
서적
친정
자진
조류
된장
제치
블라
특집
음식물
금연
회의실
시행령
고마워
베네
휴게
컨트롤
속한
납득
##영향
##운전
수목
다각
길러
압축
마인드
프로모션
##ne
파생
끄덕였
약세
동결
휩쓸
daily
스타일링
정자
공론
연루
곡선
임진
디스크
견인
화상
지극히
부친
옹호
웬만
자란
윌리엄
장래
여가
##싸움
아버님
방한
유쾌
가축
사직
난리
기하
후손
Pro
불쌍
방문객
세균
재수
114
##블릿
꼬집
알레
가해자
줍니다
소액
고양시
박상
변명
잇달
고속도
아니하
우호
##소통
면모
Ar
커버
온실가스
##EC
김형
디젤
뭔지
체류
원망
기량
함정
연평균
에피
SP
##테이션
득표
성주
##규모
설마
지지자
아랫
##타르
소리쳤
각별
전산
지장
차리
물체
염색
설화
##더스
해지
지갑
##연대
삼각
바로잡
튀어나
약정
필드
##TI
마루
예민
농어촌
지켜야
려던
밀착
화력
문법
선착
페어
##mer
의의
##LS
오렌
최저임금
누리꾼
유죄
1984
실려
는군
운반
그레이
##쳐서
파스타
의사소통
STX
가뭄
퇴진
헬기
과다
억지로
중심지
총체
저지른
피트
##ect
한인
선장
싸이
여대
알렸
강호
실상
##서구
져서
고립
환원
쏟아져
자재
귀엽
기생
포로
클라우드
군산
조조
치과
연내
가마
기숙사
이목
행장
행사장
노라
부른
흘렀
시끄
##구석
##태프
재즈
단서
설득력
어린아이
꾸려
법인세
마셔
캐스
잔인
과실
게이트
##데스
인명
어치
정동
##저우
회생
검출
##제철
KBO
어딘가
##돌이
손길
지켰
하원
금강산
두꺼
급하
정년
동문
태블릿
기인
##플러스
홍성
언론인
스테이크
학급
187
신자
통일부
추신
동경
미학
염증
파운드
신년
##ight
프로세스
정몽
해피
집필
##발전
성남시
광경
애플리케이션
오렌지
##겹살
말미
날카로운
으세요
나뭇
##멘터리
쏠리
아사
이석
내포
노트북
불어넣
##기야
잃어버린
문예
##겨운
뜻밖
선별
##스테
마음껏
an
PR
이현
심심
이따
TF
##pp
작정
대요
발령
##기구
내다보
삼겹살
##헨티나
거니
로켓
##적으로
##이팅
연안
아주머니
연일
움직일
하이닉스
다큐멘터리
김준
##지대
숨진
고구마
재빨리
미처
정했
에프
유보
소규모
##세이
##oT
지친
도장
실재
지난번
##화기
빠질
뿌려
아르헨티나
잔디
##TO
환호
겨울철
걸림
준다고
전성
##너스
움직여
낙관
문경
우산
담임
##병대
타수
살아온
##타리
출력
관습
손흥
##로나
미뤄
잉글랜드
다닌
롯데마트
이별
징수
고의
란다
불길
mm
충고
##ary
학살
개개인
모기
손흥민
산악
어미
캠핑
포토
지워
##먼트
유신
예뻐
크다
##협회
울려
경쟁자
##에이
강자
회상
신도
메디
버디
ㆍ중
결함
남양주
샤워
배럴
1200
그렸
수법
박원순
원자재
모방
방울
##자치
폭염
고등학생
술집
마실
죽여
홈플러스
라구
대문
무늬
스러움
박계
현수
##뜨린
##진보
IoT
폭풍
삼진
유니폼
텍스
가져왔
가늠
던진
##매매
몰입
질주
마냥
이광
186
미스터
호평
강구
나간다
샌드
단골
2500
일찌감치
문화유산
한식
해킹
정문
신다
태권
라든가
효성
##우리
덩어리
추신수
메모리
1982
색다른
각광
민족주의
##숭이
##사람
전염
불펜
영등
복도
매물
마찰
사마
파동
미분양
연어
청중
분해
En
팽팽
방과
##ens
에드
준수
일생
be
일까요
피터
기업가
서원
접종
중학생
기업체
명상
법관
존나
마술
112
##도어
떨어진다
태우
부평
폭스
##공정
구할
is
탈모
이견
경보
닥터
실린
##여행
가파
이식
추운
프레임
독립운동
더위
개체
끼치
넘겼
##ib
일러
결산
카르
소신
원시
소니
손꼽
대구경북
임용
저마다
국한
명동
경인
제압
테크노
이색
치안
뚜껑
하트
다듬
판교
어휘
항해
수요자
별개
고종
##피탈
공격수
HD
유예
개조
당뇨병
##높이
정진
석사
탐사
모양새
증후
##ice
상표
날아가
로움
공로
정전
설교
박지원
버거
악재
소상
사회단체
현대인
신조
##90
다이아
머니
인지도
##셀러
펼칠
공구
시흥
##ct
채취
강물
선관위
쇠고기
생겨나
두뇌
##tern
vs
폴란드
유승민
해온
일괄
적당히
문단
질렀
여겼
고찰
지킬
작곡가
감찰
이진
로고
선대
장마
##금자리
일본군
Sp
내정자
후자
##포트
상시
부임
초코
보금자리
유한
원수
애써
안타까운
장병
미미
항쟁
깔려
영재
칼럼
신차
입건
미네
격렬
도당
축복
특구
##MC
OS
##보드
연초
클렌
인조
이완
막히
SS
실존
센트
금세
도래
##부인
청렴
소아
하향
유난히
조그만
##ex
궁금증
통찰
실명
문체
내년도
공판
그래픽
타고
탈퇴
분비
가설
후진
손수
##사스
경품
우월
내쉬
자르
발병
##프리카
남짓
대명
테니스
애매
위조
간신히
Sh
동상
법제
원로
폐하
메가
여정
실물
소파
취할
기원전
산지
치른
##진보당
비대위
백두
진해
할지라도
보드
눈부
연소
내세워
가담
오산
기득
유익
소폭
아티스트
탱크
멋있
주축
샴푸
냉동
주저앉
장거리
장터
통합진보당
절제
시설물
핵무기
비춰
드문
경희
음원
핑계
##추어
아웃도어
빠져나가
충당
센스
증설
달라질
변호인
##성이
공모전
천주교
종말
음악회
머물러
##10
지리산
수첩
신문사
문항
해수욕장
리드
울산시
##타이
몰락
##qu
드론
리뷰
걸림돌
요령
스윙
레인
손잡
돌아올
벤츠
##징어
묵묵
##ES
카라
게끔
때려
경감
통계청
과태
민선
번쩍
한복
불참
##orea
##IST
할까요
##줄기
초상
##AS
남다른
어머님
##네스
하락세
브루
넓혀
지음
과태료
습득
외상
Press
능동
드린
선동
겸손
Re
외화
나주
대두
관내
남매
견딜
볼넷
1979
넓히
선점
왜냐면
근절
적금
화자
사귀
구이
용병
벗어난
어이
지면
동방
모자라
##일러
비스
휘발
KO
포드
마리아
결과물
긴밀
증가세
상임위
군민
심층
1983
각도
##균관
원피스
박탈
무수
##벌이
루이
중화
가세
당사
진한
##ace
##퇴근
08
바치
명사
##나들
1930
스미
남미
조립
##MA
##정부
수평
침투
떨리
러닝
벼슬
제네
##생명
왕실
중형
시진
시일
후유
표본
##모습
울릉
환승
녹화
핸드폰
명심
모욕
독려
꾸미
닷컴
전시관
성균관
기피
비비
넘어선
다저스
##벤션
삼성그룹
응모
경연
아마추어
중국어
장례식
역세
증후군
주의자
DNA
조형
코레
다녀왔
기꺼
재편
##이도
##경제
지칭
tv
결실
시공사
입수
막강
신용카드
캐스팅
소박
클러스터
뒤지
KCC
국외
비빔
모발
홍삼
발송
버터
국지
여긴
분수
워킹
레이저
더듬
앤드
국고
고심
직권
제자리
##르기
##합니다
십자가
바짝
타결
토양
바뀔
상점
부지런
전두
평상
바나
포스터
##엑스
텍사스
##one
듭니다
카지
만두
이케
시크
오디션
훗날
##파이
믹스
벗어날
요렇게
권익
중앙은행
##────
달걀
컨벤션
조망
합격자
돼지고기
만물
유기농
##조선
105
대담
연체
라스
세자
##베르
클릭
허공
##프리
방송국
끌어올리
입각
국군
밤새
붙였
무심
판타
스며
증오
상류
페미
스리
하청
일어서
영등포
##소드
##ㅜㅜ
막혀
퇴출
대피
어야지
히로
무작
라인업
날려
기미
그러다가
대리점
사령부
##올랐
안드로
섹시
맨날
시한
##RA
동창
풍력
갇혀
무제
열망
취했
신지
일명
레오
##소시엄
표창
귀한
실로
컨소시엄
최우수
집어넣
시당
독창
쌓이
오사카
만찬
생물학
논평
옥수수
바이올
로버트
도널드
미팅
산행
원산
포부
벗겨
르노
정선
##테랑
##퍼런스
복사
공예
산물
사운드
바이어
정산
도마
웨딩
포르투
의대
친근
자궁
입양
초고
해답
비해서
여느
본보
횡단
근접
송이
합치
동사
냉전
이준
남북한
나이트
기상청
박진
스터
국감
##하루
의왕
##어먹
CN
곤충
대동
사리
컬렉
거액
주어지
##플레이션
미션
점프
올리브
##ost
원단
무단
낮춰
함양
유관
CG
go
유럽연합
잠자리
접한
회의소
외관
텃밭
인맥
도매
할리우드
멋지
지름
강진
찾아와
경영학
기꺼이
요한
주상
경지
입단
##커스
고부
승계
금전
파우
연고
수동
내다봤
길거리
주파
주시
풍기
민영화
흰색
통지
##IT
한껏
##관광
불평
오징어
궤도
절정
동대문
희미
스캔
##북자
슬로건
골자
##ivers
다스리
다물
##그리
비법
강국
윤석
거래량
급감
##hy
프레스
요거
세계관
DJ
우상
생활비
서문
CS
야심
특례
##킨다
건가요
끓여
##lic
벚꽃
국책
받아들였
출처
민사
필터
우량
불공정
침착
마일
공룡
원동력
##대기
우드
광역시
##son
여배우
미생
터뜨렸
pr
내뱉
회식
납입
오지
두려워하
정점
강수
분자
성매매
플레이어
단연
##ies
##가족
오른다
패밀리
하버드
낯설
경부
사신
또래
정보원
꺼냈
사관
합니까
경쟁사
호재
꼬마
농지
유선
##전력
차선
수비수
가져온
##민주
아미
아세
파인
##베리
분주
뒤쪽
보태
남산
수반
설레
이뤄지는
고비
가져올
벅스
느껴진다
포수
멸망
공짜
모스크
쌓인
대교
ed
은폐
입대
주춤
##부르크
질투
전일
노숙
##her
카지노
기념관
실버
약품
들려왔
녹차
오스트리아
방역
동점
빈번
xx
적절히
출퇴근
차종
마차
관제
은행장
뉴타운
##찌개
데이비드
참전
임하
1981
후보자
진행할
이루어진다
김창
회고
이윽
성추
바닷가
김윤
##반대
파급
햇볕
과열
욕설
보건복
투구
##oun
드래곤
자비
일찍이
세액
##GA
무형
이창
김희
수영장
기저
표결
십니다
알렉산
민자
절벽
저거
##남도
대본
마마
언스
나눴
즈음
##플렉스
AS
##입니다
열흘
노스
호전
##루미
본점
과반
아리랑
눈동자
소품
종결
이윽고
리버
르네
동전
잠자
장로
실사
면서도
정관
노년
##고속도로
후유증
##와이
김문
이룩
EBS
레벨
산업은행
##김없이
Cl
성추행
그릴
어학
소명
밀어붙
두께
##ical
주스
풀려
박인
옮김
##지르
동요
약국
ex
루이스
바울
테이프
방면
셀프
직구
##에르
들러
보궐
어마
퀴즈
##LED
##동원
##틀러
기리
계파
푸짐
가평
쇼트
##병원
수산물
세탁기
##질랜드
붙인
##으므로
공산주의
시동
의료진
왼손
하인
원숭이
##외과
간혹
암살
트라
도무지
브레이크
드러낸
자취
살아갈
효능
잡힌
니스
나르
호조
싸워
이놈
후계
전승
이뤄지고
기념식
시드
##천군
이면
번영
려다
ETF
여행사
구실
그쵸
서브
이끈
##상부
베테랑
제작사
내려다보
느니
찬반
굴러
헤이
소이
김인
권장
108
행렬
##팡이
이리저리
가이드라인
내려갔
##범죄
타이밍
##ike
지으며
과천
이겼
에피소드
수월
생명체
해선
떠오른
계몽
스프링
뉴질랜드
성원
순조
조장
그라운드
요동
##ert
한라
왕복
링크
옥상
라든지
거창
태극기
##자유
##투리
따돌
헨리
다정
살펴볼
마음속
##보험
이온
블로
2030
석방
트레이닝
줄줄이
무사히
역학
남해
가혹
185
하도급
소고기
워크숍
타석
박용
##DA
##훈련
07
부의
거라
열광
##소년
송금
102
헤지
줄어드
유대인
걸어서
일으킬
증폭
교도소
상고
##권력
교복
생전
측은
익명
아마존
산재
시멘트
섞인
PB
다크
달달
수량
호박
조원
군포
친일
과징금
대검
표방
지회
니깐
sp
오토바이
피지
퇴임
세로
복장
거둘
빨래
ㅠㅠㅠㅠㅠ
살아나
만세
프리미어
김명
국사
##대교
올라왔
##사이
묻혀
대포
유령
진작
09
눈높이
결집
사위
내세운
이용객
##버려
신음
자정
캐주얼
진통
sh
승자
조문
하남
방북
무안
사생활
성별
명제
에버
학점
원했
난방
오세
단기간
야말로
ES
살균
야구장
강대
본문
사옥
MV
보답
시진핑
달라진다
양호
입문
대성
허무
##꿈치
내륙
과언
형평
골고
버릇
##ement
모였
정우
김한
우뚝
넘긴
승마
유수
후임
텐트
호감
보건복지부
목동
왕비
섞여
앞뒤
어업
사이드
야지
연산
전두환
웃기
삼촌
노골
예매
##본부
습지
표적
상반
유포
저조
저술
항암
##출산
잔액
강력히
엄지
##스틱
신청서
저주
들여다
##elf
이대호
모듈
LNG
용납
남동
##무실
올라갈
##여겨
베풀
말기
양평
대권
주지
시카고
##어로
악취
어째서
쓸쓸
외신
아테
키울
특사
이방
골퍼
##테면
일깨
세심
공평
세속
출하
사이클
##렁이
##부분
극도
포르투갈
추이
##기에
전장
담합
전념
허구
중진
차입
반문
보훈
야드
튀김
폐업
##재단
정장
서재
##예술
오름
포상
re
프란
##오롱
폭포
정형
라이벌
1920
농축
##ult
##생산
이산화
특색
간과
가급
로선
##라이트
##리안
오마
마법사
처해
수거
장편
행해
동탄
##지기
퍼시
눈여겨
직관
알뜰
오리온
입자
헤매
가미
다시금
필립
SW
실증
1978
생략
##오리
피난
저쪽
한중
##베스
지나갔
##라미
저리
##클럽
제국주의
차츰
##키아
아무렇
미인
계명
인위
드러난다
박병
장자
세분
당국자
LS
꼼짝
해냈
대책위
컬렉션
거침
유상
##주택
맞대결
끝날
York
유저
360
벌레
알아차
남아공
명함
개미
아담
구로
막연
슈팅
서초구
끊임없
연쇄
통역
##월드
균형발전
급한
재임
장부
세율
품격
PO
결승전
만료
##허가
색채
다는데
후반기
아모
버락
##투스
공청
속한다
##드레
재앙
가진다
웨어
골고루
각계
영수
목회
걸린다
깃발
들으
띈다
이시
체납
안드로이드
개원
우체
증자
놀이터
125
식감
저지르
직결
이를테면
눈썹
시력
액세
태세
사외
시련
제동
금고
격리
본연
거듭나
미달
현존
대표단
##센스
이스트
청계
가급적
##모니
히어로
VR
부적절
곧장
##셀로나
두피
달빛
코오롱
다이아몬드
토종
반격
신원
풍자
조현
바르셀로나
불린다
##의사
돌연
보건소
##마리
판례
반가
절박
베리
들어설
영화관
다녀오
동조
일당
무거
김밥
세일즈
덴마크
정반대
탈북자
로맨스
묘지
시시
심포
##박이
##ual
정례
플로
도자기
접대
수감
학사
빈도
##위치
드라이브
시책
##날레
나치
여력
도미
경산
늘릴
크레
늘어놓
CO
백작
시켜서
챔피언십
환기
간다는
의아
대림
여우
동산
추방
창당
깨달음
원서
기부금
귀중
조경
입금
##크리트
건설업
법규
쿠바
로워
##갈비
줄였
##벨트
재판관
##그래
##끼리
낙하
일본어
날렸
공대
시그
농수
창설
발자국
고액
엿보
무능
수없이
테마파크
##운용
화랑
취직
##방송
사범
흘렸
출발점
장갑
실세
합당
늘렸
종속
##에스
##거지
권하
따름
비관
일화
SC
곤두
세븐
성동
보트
당과
기질
보단
재래
일세
쫓아
상하이
박재
##런트
사거리
연기자
배부
취재진
농단
##나타
포지션
봉쇄
##orld
나폴
by
늘어
pro
한옥
휘발유
환급
사학
김천
스케줄
쾌락
외고
키웠
추리
애기
##oy
콘크리트
##sh
관문
##네스코
세단
라틴
주당
차이점
1945
쿠션
##화물
폭락
전문의
수요일
기술자
손질
유언
##처분
참치
담화
그물
계셨
수료
따랐
단풍
풍속
칼로리
시킴
적힌
##국적
배움
클레
LI
훔쳐
고령화
중위
교향
클로
유공
인선
틈새
순례
##바꿈
어느덧
선교사
##워했
##총액
했잖아
교리
1975
선팔
흘러가
##자유구역
미묘
##가치
부끄럽
비준
훈장
##조사
자각
시가총액
교직원
드릴게요
커서
터뜨리
생산자
Sch
##야구
묵묵히
연재
정주
동반자
공소
여행객
맞붙
##야마
파스
신영
경제자유구역
##드름
방사선
카리스
미주
집합
1973
등재
흉내
쓸데
면역력
속초
숙이
더욱더
망명
나날
바나나
카카오톡
에도
이장
법학
비웃
다치
스태프
여동생
흔한
속삭
일조
모던
예년
든가
여도
어쩐
주입
상륙
##━━━━
이재용
북방
찌푸
하루하루
김두
월간
움직였
경향신문
##ology
##키퍼
끌어내
김유
깊숙이
동등
았었
유네스코
리바
내보내
고품
조업
거슬러
접전
조선인
아토
애쓰
종족
세이브
대우건설
영동
115
초밥
##수리
미얀
LPGA
틀림없이
부속
원격
시국
FIFA
괴로
##현실
111
품종
편찬
이승엽
동성애
감격
진이
184
골키퍼
한다며
지평
피스
종편
타깃
내버려
고아
은은
울타리
체조
식이
둔다
구슬
마음먹
퍼시픽
창의력
그놈
잣대
내세웠
한국전력
대용
##언스
윤곽
사회학
회로
재차
허벅
상선
세입자
##AT
부담금
알맞
Al
결여
조선소
철폐
항로
기습
##ts
세르
슬프
요란
잇따르
농약
둘레
펼친다
반납
상거래
킬로미터
##레이터
you
비참
##어야
구비
무궁
총생산
보류
얼어붙
아유
쿠데
공신
초조
##면적
사업가
450
정경
영하
스파이
틀린
##뉴얼
질의
겹치
원안
배기
##디스
벽화
처형
임종
구인
##공단
펼친
엄중
바늘
AR
CP
자위
쓸모
##디움
증액
손톱
도피
담장
##데이트
카리스마
유무
싱크
##ord
타이거
돌풍
찾아갔
##aw
원주민
루수
조별
부응
##러미
##유예
고모
##들인
망원
암호
슬퍼
겹쳐
오키
##레나
수출입
당면
컨셉
정정
모리
##깨비
##답니다
자택
박해
포스팅
공안
수중
Ex
##88
구만
##시대
규탄
해역
부의장
피력
주파수
유가증권
시발
이루어질
노동력
강당
아인
##십자
곡물
##그레
친숙
##법인
두렵
망치
복종
수용자
외형
##북도
할당
##신저
##태우
자치구
한상
업데이트
Univers
##나와
번갈
선착순
자니
회색
삽입
서산
봐라
택하
##벌레
종로구
탈바꿈
무공
주둔
세례
벨기에
매콤
전라
총무
시어머니
AT
바빠
항복
갑니다
맞물려
전대
최장
책임감
패권
쿠데타
유능
쏟아졌
개인전
가야
급기야
CBS
깨끗이
##질러
고로
##티아
안목
계발
고함
사표
장담
드려
대꾸
스티븐
한은
저출산
스노
103
무성
1976
의거
매스
자산운용
승무원
로즈
##다녔
도정
터졌
하와이
목요일
##ind
레몬
서열
접할
순찰
친한
왕위
태백
사법부
강성
적잖
탁자
##LL
마니아
용의자
대위
는커녕
숭배
김혜
지질
연탄
셀카
발족
유정
앵커
프렌
올라온
##ollow
저렇
##퍼드
약관
지휘자
상급
치마
돌아서
1974
이나마
에릭
보라
장애물
코디
알루미
Ed
진열
변한
##iss
샌드위치
부결
웹툰
토리
복권
듬뿍
##시스코
장시간
사사
똑바로
##마켓
들려주
쪼개
악용
순회
한발
체전
몸짓
아비
##때로
##ach
##나리
##수지
전한
제조사
해준다
남측
매뉴얼
토너
트레이드
Le
존재감
속옷
목적지
결핍
##투자
역점
크라
연중
fr
뿌듯
군단
기용
me
절로
급속히
대역
육지
하얗
상봉
전시장
액세서리
되새
매직
깨우
반하
엿볼
판타지
개그맨
그제야
공청회
다방
예보
양질
##저것
##AR
떠돌
컴백
이것저것
심혈
화사
합시다
코코
어둡
아부
기울였
두드리
연못
##어냈
고분
얼룩
여태
세울
엎드
웰빙
기침
흘려
모릅니다
추후
비만
##ance
동반성
마진
머무르
불출
불타
히틀러
전례
정류
클렌징
서너
거시
리우
with
하동
집행부
##크림
소방서
숨겨진
홀딩
서두르
갈래
수자원
이브
급변
모스크바
권단
현수막
더더
만끽
그레
방대
원만
##상스
회사채
240
표상
타고난
베스트셀러
평면
##스틴
가드
터진
연구회
광대
220
지주회사
묘한
조개
녹지
연주자
비누
판문
자생
##차림
##말라
공법
택했
##짜기
발산
부위원장
힘쓰
기색
취업자
팽창
펼쳐진
갯벌
장남
피크
Sc
당근
즉석
임차인
He
##박스
##공원
잊혀
허벅지
수박
희귀
##수원
여수시
스폰
특기
축사
##뜨려
쉬워
어울려
123
일컫
결말
끌어안
일쑤
인텔
##바탕
마력
알루미늄
루타
셰프
경신
환산
여간
전투기
비엔
호흡기
##평균
회복세
##곡동
이제야
포크
주공
둥지
이세
##프란
경마
지독
소홀히
카타르
생소
됐으나
이의
##이치
선보여
돌려주
적폐
얘길
웅진
치료법
미혼
1977
견고
공지
왕성
al
전차
안면
틀리
귀농
떨어뜨리
다이어터
MVP
박경
뒤덮
방출
##나드
파헤
주식회사
후원금
소진
강점기
몰렸
정제
나뉜
피겨
불렸
##희정
쌍둥이
신전
치켜
##연맹
수표
태안
신진
타락
사임
촉발
거지
치렀
내려와
포용
항소심
문학상
전동
달려들
대리인
##축구
하필
상회
통사
들어와서
안도
박주영
체온
구조물
용감
##ign
##거래위
공립
공정거래위
추종
특급
전성기
맛볼
캄보
##yst
밝힐
##정동
정계
찬양
줘요
##린다는
소양
##학규
재주
##티스
관철
트래
르네상스
##RI
건넸
들판
악영향
종자
게스트
Mar
서운
스피커
상이
##ome
1972
조처
##숭아
시아
수식
다국적
정중
기일
근간
의석
합산
중얼거렸
저해
메카
##mp
Man
##구멍
돌봄
함량
스톱
성범죄
개막전
조영
수염
충주
##기름
죽였
헤아
끼워
아우르
매경
##프레
울렸
악수
존엄
키운
##ah
유재
##ous
중원
##악산
서귀
##러기
순차
하룻
은밀
광교
벌리
사치
용돈
유희
소식통
##튿날
벌어질
예견
##순환
사채
입소문
알레르기
##어마
다녀온
##하니
끝났
파고들
도주
트러
##베트
리콜
부흥
물리학
흩어져
모셔
##글라스
1800
몬스터
이튿날
미얀마
맥스
Pl
마땅히
신작
강인
문턱
단단히
팔레스
##남동
느리
한양대
노르웨이
아쿠
염원
입주자
효소
잠수함
밀가루
사우디
스캔들
가처분
징후
##전지
해낼
성급
##퀘어
##ug
kt
시위대
104
유병
제각
##파리
견뎌
강전
군중
망가
사각지대
더운
줄지
손익
톡톡히
감행
규격
우와
분화
김원
선뜻
청량
##슈타인
부두
에르
여관
CF
##내기
거쳐야
어마어마
107
여행자
##하늘
지지층
판문점
계통
##지오
아팠
제왕
개구리
홀딩스
모처럼
상습
슬라이
스케이팅
미생물
##턴트
##나이티
남경
##승환
보호법
안보리
함대
##퍼니
기관장
대법원장
캄보디아
코칭
중고차
모토
간첩
윈도
##철도
##매도
시내버스
서강
어스
때때로
유서
유나이티
친분
화석
쓰러지
서귀포
tvN
기점
도보
지중
운임
179
존슨
배급
벌일
##필더
미드필더
##지도
온전히
친밀
그리움
나리
##아나
대나무
##내셔널
반론
화산
오른손
권총
쉼터
호의
활발히
숨지
무난
승려
Joh
##여대
인터내셔널
늑대
인플
아연
송전
외래
세라
우익
위헌
ac
경희대
단과
코끼리
붙들
오너
현미
말없이
종가
바꿔야
척도
지쳐
결선
1300
토토
OLED
괴롭히
계획서
이쁘
한단
강북
초라
시킨다는
실크
속이
죄인
사업단
불명
밀도
팔레스타인
ha
패스트
몰려들
개량
상단
칠레
누이
평창동
반장
우동
피드
##기부
##무니
목재
109
마녀
권영
159
##프란시스코
경성
털어
나흘
근심
공표
반항
지탱
힙합
교보
위태
자선
제대
변모
샌프란시스코
메이커
세밀
핀란드
노려보
의논
공명
불러일으키
숙명
##페이
사촌
가부
양대
내기
##ish
김영삼
카레
귀환
임박
diet
106
##티지
태워
승차
단군
성희
거둬
여럿
디즈
기력
각질
##러웠
양복
불어
싫어
리처
183
University
개막식
버블
##노총
전작
##orn
##ife
손학규
당혹
장애인
리라는
달아나
GB
하룻밤
정적
재심
인분
환하
관련자
De
움켜
돌아섰
##하이
아무개
시뮬
##게임
채무자
시종
##삼성
##는데
AD
##ick
채권자
술부
고운
선호도
일삼
보상금
컴퍼니
보입니다
여진
운영비
통신망
흡입
##다나
쿠키
이룬다
볼까요
이화여대
총기
지나간
보선
사용량
유격
미성
미련
##네마
흡사
스쳐
##AE
스폰서
충실히
창간
##부모
육수
1968
의구
변론
어긋나
스티브
아크
대의
이송
갈색
##장구
저질렀
북경
이라든지
탐험
##장면
덩치
하하하
당진
135
존속
견지
인출
내려앉
헤어지
었었
ㆍ군
메신저
로맨틱
호가
궁전
보컬
##ik
원회
##기지
벽돌
재촉
##기사
올린다
수정안
거들
여행지
##부상
##십니까
##체스터
찌르
포위
휴직
음향
관통
미친다
침실
마틴
담백
입안
익스
비주얼
##포터
대국민
변혁
##갑니다
##금속
환수
##시피
입주민
신주
최영
평안
체육회
만난다
인플레이션
##TS
다운로드
내려왔
##ations
국제공항
Ph
당나라
쓰러져
무명
수익금
도우미
소독
아바
일차
서비스업
파이프
사대
사죄
##비치
해독
외로움
못한다는
wh
##슬리
##가짐
응하
묶여
No
##노스
생명력
지금껏
여드름
풍선
범죄자
시연
성장률
로열
1600
매몰
온전
꾀하
연임
갱신
해리
혈당
맞췄
어조
까진
봉건
##ire
송파구
벌인다
명명
정재
그지
내몰
##숨에
단숨에
##세자
평상시
먹여
##라비아
말미암
치중
##ner
벌떡
##망이
일회
다뤄
수녀
보스턴
갖가지
##무게
소개서
브레
악몽
건축가
파손
소동
##방식
차마
재물
산타
구자
제게
자릿
강했
작물
이건희
모닝
유류
전한다
154
소란
##들였
각인
의구심
몸무게
꺼리
질타
일보
시조
as
공무
휘두르
리라고
그러다
개발자
다급
##보내
숙성
물리치
체내
행성
엔지니어링
장차
##tiv
지방세
이은
##11
수레
외우
루트
필라
SD
심플
은하
돌아간
스타디움
아테네
##베이스
추론
관절염
착취
##able
모비스
건대
##마을
후계자
대덕
##te
거센
사육
올스타
점진
소변
심부
어김없이
개교
Ad
1971
자수
들어선다
##세기
아랑
허허
파행
안락
들으며
단추
김구
방황
공채
무분
수만
결의안
더더욱
유화
II
익혀
포천
##HD
씁쓸
##mun
장원
미쳐
PGA
저번
실업자
무진
끝없이
##퉁이
운수
TP
강간
색소
BC
##모토
특보
털어놨
동인
산수
코엑스
상응
지방분
드라이버
엄정
양수
무너져
열람
직위
공과
수납
죽인
앞섰
조롱
##기술
현대제철
매달려
불사
보호자
만져
PE
##old
대령
장년
살아왔
프랭
국도
이청
중추
비박
기뻐하
발표회
불문
판로
주교
프로이트
##젠테이션
전세금
박찬호
##원지
망설이
호황
배낭
커진
액체
가닥
김남
빌라
성금
##테르
막바지
원한
승격
이양
거미
코어
에디
꼽혔
김우
알바
챌린
성전
ELS
##셔리
수성구
전단
이호
전라도
살펴본
아이러
요정
가든
이라든가
유공자
럭셔리
영산
##버섯
마드리
찰스
폭격
추궁
요트
분권
중증
디테일
내시
##BA
경색
난감
이뤄져야
보낸다
화요일
##부진
Pol
상큼
리아
정현
##란트
##패드
데스
잉여
저택
ㆍ미
늦추
태자
##다르
구부
보이스
양말
끄덕이
대마
북극
머금
지부장
고위급
하사
합창단
친해
라운
간다고
머신
145
1948
과감히
성모
골목길
마드리드
승률
임산부
청각
황사
##코드
낙후
사고방식
한시
맞은
코믹
follow
사당
검열
성지
악순환
##그네
공교육
##라지
리처드
편향
리비아
김은
선풍
몰라요
230
상설
번개
한몫
환매
신곡
기술원
맹세
저감
본회
수백만
아이언
기수
##버거
염소
차갑
챙겼
멀쩡
모공
178
##도르
불려
토막
분식
진다는
##즈음
구석구석
직영
씨름
실수요
##und
호스
는군요
##ition
자루
트리플
이재명
칼슘
##me
##are
반값
##ock
아이고
자연스레
부산대
맞은편
경이
랄까
모조리
꼬박
슈퍼마켓
사령탑
고안
방사능
원산지
113
양면
욕실
아세안
Tr
교내
국영
멍청
내셔널
팔려
어려서
생강
장보
챙긴
태종
정가
공사비
공허
##리학
원소
외롭
##con
동호회
미모
두어
탐욕
##CO
좌익
휘말
##바겐
동메달
##무소
다룰
노원
##ㅋㅋㅋㅋㅋㅋㅋㅋ
싱싱
애널
졸라
불상
유모
자본금
자구
압수
생겨났
##베이션
집행유예
이점
끌어들이
157
데려가
유로존
사라질
사절
명실
치를
들어야
리터
##자락
호칭
한없이
와야
본관
대열
앞쪽
우체국
연면적
효자
융자
발부
##크라테스
모세
파키스탄
국유
엉망
##데기
냉면
무자
그죠
두세
적법
전처
도깨비
전전
부럽
항일
쳐다
##금융
의리
자처
##int
짬뽕
갈아입
단결
##브라
본지
플라톤
불고기
증서
입상
##맞이
마주치
##사상
스미스
Bl
운동가
미스트
체코
하소연
은메달
주니어
##워졌
반짝이
끈질
어우러진
딱히
조속히
오디오
탈피
옵니다
늘어난다
John
##시즘
콤플렉스
##ern
예감
울진
무방
청담
얼리
가락
무당
연전
숨졌
배드
정류장
트랜
내심
신뢰도
깨지
올라와
GE
교육비
##io
레이더
교단
지치
반감
비장
바닷물
판도
짜릿
양양
출원
에세이
조수
전향
당당히
보직
##불리
공보
리오
승강
행적
르노삼성
##ech
##fic
스러울
이강
거머
법상
은근히
##습기
내전
##임자
충만
찬사
##자재
폭스바겐
와의
광저우
영예
두꺼운
##미안
하드웨어
복지부
클리닉
복숭아
전경련
방송인
요가
아이콘
일간지
침수
민법
국무부
위계
필사
##주군
탄산
구형
향토
떠올렸
##그러
##체어
볼트
##인물
처하
서남
무더위
일감
병실
의병
스퀘어
휴게소
는데도
사계
담담
즐겼
극한
기쁜
1900
지녔
자릿수
동거
선글라스
영남대
##22
루스
155
자연히
##스트리트
휠체어
VIP
해병대
최재
최정
경직
커져
##tit
차명
빅토
슬쩍
비아
힐러리
he
365
레알
외환은행
세계인
매사
굶주
규율
##ystem
JT
라고요
속내
117
무이
속해
춤추
서인
자락
제갈
정사
구직자
산불
인디언
##레스테
##안전
도망치
마흔
쓰인
예술인
성산
물자
커리
워치
니콜
안중
로드맵
냉각
발동
독주
김관
##ris
요시
DMZ
술잔
어땠
까마
수건
##나항공
바이올린
싸울
비방
당위
가로수
될까요
##tr
심야
대내
반경
빼돌
##너무
##연구원
조이
외무
까다로운
Soc
약식
아시아나항공
영사
나타낸다
위촉
직속
무더기
가늘
추출물
KE
김학
국기
##미디어
통째
건만
하여튼
무분별
거장
부가가치
영종
후문
##상수
주어진다
일류
급진
동학
오션
자민
외교관
답사
동명
대관
김세
설령
##ide
어용
꼴찌
128
막말
휘둘
##암동
일어난다
유산균
내려온
뮤지션
전망대
꼼수
바라볼
like
기다릴
이규
물러서
내린다
지구촌
3500
체면
뽐내
디즈니
젊음
의료비
잔류
1400
골짜기
달러화
불쑥
토목
이노베이션
출품
아토피
불거진
출혈
공수
유태
##갱이
##OR
장안
천황
무작정
바우
바리
MD
지날
넥슨
잔잔
무서워
연정
나아갈
태아
올라간
삼가
##of
성명서
##커트
고른
누비
대의원
가명
니트
우파
전화기
퇴직금
멘토링
1969
##누스
들려오
##레스테롤
거느리
관직
NG
##나갔
그칠
도울
자손
청도
기동
기저귀
주범
##통일
내비쳤
월스트리트
한파
무실
독성
보성
약사
콜레스테롤
팔로우
이산가족
##레마
리바운드
미쓰
##산성
영위
##고래
균열
진흙
##무진
치부
망각
섬기
신촌
##AP
ㆍ정
안무
김효
구급
취득세
##십시오
1967
위쪽
포켓
용인시
조종사
남대
속출
031
Intern
김미
비우
121
PP
이질
생체
서부터
갈망
거쳤
불허
잠겨
MBA
신안
안티
##SI
165
미지수
원심
##AC
신명
##ey
멜로
대면
혹독
모여서
다중
반가운
음주운전
상여
##마르
거래일
여타
UAE
혼돈
포즈
급급
en
일리
흉기
스틱
대졸
독립성
슬림
정연
승소
곱창
군청
원점
쌍방
사지
대전시
동물원
##백화점
부딪치
살린
미시
강판
성희롱
오라
이국
집약
햄버거
##리시
계집
사춘
Wh
쇠퇴
아리스
도망가
나물
부담감
스티커
사역
미숙
배양
살릴
경기력
##프스
맛나
관리비
입가
조아
##마킹
입히
조선업
영천
자랐
아깝
##덱스
삼성증권
베어
수퍼
##뜨릴
지만은
달려갔
하긴
##루스
##라이언
차등
벤치마킹
음란
나폴레
당도
거스
베개
본토
덧붙여
스코어
푸틴
호두
사탕
환불
다니엘
에센스
175
논하
메커
투성이
NS
Gr
아메리
##올라
쳐들
127
사주
팔렸
사무국
버림
관리법
##막이
PM
판소리
잡아먹
복판
줄게
더군다나
변환
배워야
최경환
빛깔
퍼부
가전제품
자연환경
뭉치
언뜻
경청
그친
상법
우라
각서
122
116
간절히
엘리자
첼시
중남
재검
무너졌
##페이스
중장
다가온
볼륨
어민
착하
커튼
셔도
충무
마누
조계
해내
팀원
금기
미수
샘플
배임
아래쪽
못한다면
##살렘
담아
당권
잡혔
물려받
대란
지기
비료
쫄깃
한심
견학
실종자
직책
##루엔
기밀
##교도
##루살렘
소사
아이디
요지
찬스
도루
콩나물
만연
평정
흔하
턱없이
아우디
출고
1965
제지
월등
감세
팬츠
간행
전집
메커니즘
게으
Comp
##퇴직
임대차
##현동
연신
내줬
부추기
성품
나와야
어기
영도
##itt
조합장
급성장
테라
EC
웨스트
쓰인다
올라섰
자작
경제성장
복선
탁구
재화
가두
거룩
##ank
##ove
봅시다
좁혀
너무너무
맥도
신생아
김부
장대
철새
맨체스터
더러운
알아볼
놀랄
뒤섞
루터
화법
황교
매달리
풍토
##anc
나뉜다
불씨
어우러져
송영
미역
두근
컨설턴트
고뇌
달라붙
자책점
118
둥근
이한
##가정
레시피
의성
구한
종북
플래시
바랐
활동가
깨어나
바삭
이어받
니체
##텍스
싸웠
##부림
후쿠시마
이이
인양
화성시
우러
형법
불화
아모레
막막
극우
아쉬웠
드럼
181
서해안
dog
최진
성화
해외여행
고루
방탄
아키
누렸
줄기세포
당첨자
선가
힘차
꼭대기
닥치
카트
리치
뒤흔
밤중
원두
암기
나폴레옹
사용자
##쿠버
제물
이효
자의
해물
버드
직종
박세
##은색
영양소
죽일
##erv
신청자
석면
와이파이
낙하산
내실
##일드
##왜란
고마운
ㆍ이
변질
심신
가칭
멸종
퇴장
애널리스트
마나
감리
##릴라
바비
반포
였음
다우
임진왜란
정대
##틀랜드
랜드마크
그러면은
ad
##iew
북적
##타임
오키나와
가위
추대
부류
나옵니다
사춘기
의례
화질
다자
리베
거니와
스릴
182
위함
강기
망하
위스키
파울
후지
껴안
해저
습격
포진
막힌
전염병
베드
촉각
건너편
오스
특산물
서거
브로드
야단
이관
번식
아니요
메우
소각
##시스트
장타
트러블
상부
기획사
나열
족발
물러났
기류
정준
##이나
##ㅋㅋㅋ
산맥
동두
양지
156
우두
증강
첨부
미녀
고흥
고충
1963
치가
어이없
남도
self
해남
압구
가액
교제
모티브
잡스
스탈
로스쿨
동남아시아
저금리
평판
여주인
미용실
133
리어
신데
기이
실수요자
부끄러운
사슴
방수
알아내
퇴원
총독
##슬림
빅뱅
성기
종신
우승자
쓸데없
배열
영덕
강박
144
관용
김문수
가결
속상
미르
니즈
my
마카
추기
부녀
##eb
177
수돗
예루살렘
은유
번거
얽힌
2022
도산
빗물
잊어버리
교포
새겨진
쇼크
터전
교묘
##MS
부딪히
최태
##ier
상국
네네네
하마
끓이
필지
화순
instaf
관례
의존도
따른다
할게요
순진
장만
오찬
성대
퍼스트
##che
##팩트
홈경기
목걸이
und
750
음음
민국
의기
찔러
모은다
토니
마음가짐
구했
황태
경합
휴업
사뭇
##모비스
다카
팔꿈치
##서야
부시장
##광역
공황
##세우
넘어갔
볶음밥
DS
다발
기다려야
낱말
경복
삼척
중상
다고요
말려
부쩍
몰린
싸늘
쓰다듬
국공
손잡이
따를
태조
모터쇼
유리창
재질
광물
열등
맞벌이
향유
교토
화백
Br
무슬림
냄비
세인트
210
그립
아이러니
레지
비위
속담
가솔
사나
유흥
헝가리
비켜
현대모비스
##ton
가나
꿰뚫
유역
유방암
야마
품위
정액
겨루
온난
평형
##rans
280
민관
이공
반입
월평균
1962
장모
암흑
성벽
소생
평가전
연구실
높인
조인
흘러나오
한약
##les
더럽
원본
주된
세워진
표절
이계
콜롬
이바지
롯데월드
안전사고
애착
그쳐
알릴
수군
대표자
무너진
동그
빵집
##트랙
파나
차근
다가올
노래방
알선
인방
영수증
테라스
지하수
알아듣
##ash
농경
방화
스테이트
과외
##사랑
어쩌다
옥션
##무라
이민자
카테
면치
외과
뾰족
124
핀테크
천막
모른다고
시뮬레이션
ㆍ고
벼랑
황교안
자산관리
약탈
전통문화
논증
대승
증식
스페이스
일탈
진수
요컨대
제작비
김석
궁궐
반기문
챌린지
instafood
칸트
##meric
자초
BBC
양사
느라고
왕후
테크놀
##김치
김홍
생사
두터
데이터베이스
대명사
연준
위례
능가
헤르
탄도
136
열중
순방
티베트
과학부
집사
CNN
매끄
아이패드
브로커
국문
낙지
잔소리
여객선
TE
누락
장어
오리지
수양
화끈
박모
돌이켜
서대문
연행
산다는
성직자
손색
126
바스
불출마
사우디아
132
쓰였
##수산부
도왔
영농
연차
진하
원치
##ph
##아먹
센트럴
서한
세안
천문학
세션
대타
마포구
##터스
어떤가
시합
메이드
투신
식욕
처우
아껴
천명
그려진
현대건설
다문화
접어
눈부신
고추장
굳건
##지엄
##enc
토마스
죄책
터무니
긴축
박기
회차
로션
아메리칸
광해
풍미
봉지
JTBC
##납니다
심포지엄
밸런스
##메이
멸치
폐해
태연
##iti
휴전
울릉도
호위
스트레
SOC
중앙일보
어지럽
리포트
137
##ann
##그마
증명서
한결같이
그랑
##내려
빌미
줄거리
마취
##ink
IBM
달인
상쾌
뷔페
동래
##ive
IOC
박태환
330
받들
전보
무신
후세
다원
151
수축
차체
형벌
##승부
무색
##루엔자
저것
EP
천정
139
##버렸
비빔밥
실책
##수아
정돈
쫓기
평온
정해져
비평가
맡겼
시군
1100
메트로
소방관
박준
##인다는
계약금
국화
기념일
##ite
270
유배
##ree
##케이
구르
참배
##오카
포항시
Res
##아보
단련
쏘나타
KD
라떼
안희정
배타
혼잡
##IN
착오
성적표
다산
숙련
머뭇
건너가
허술
일어섰
실무자
이긴
까스
무림
처사
이희
인플루엔자
워커
글쎄요
un
이뤄져
건드리
그랜
소인
고질
파이낸
달해
##마음
도어
부르주
##베리아
양도세
포도주
불복
숱한
메뉴판
무모
젤리
영조
청바지
노란색
관악
구미시
손발
지킴
해발
건데요
관상
추기경
씨티
청결
성도
효용
숟가락
화분
재일
SO
따라잡
코카
벌어들
앞바다
실례
대지진
보너스
##래요
심경
지청
용사
편히
전광
##ma
최상위
다다
저게
응급실
고마움
##AA
막론
되돌려
찬란
케이블카
사우디아라비아
##제이
##어보
##워진
칼리
구운
면도
드나들
승패
구독
근까
밀어내
홍명
모여들
심문
Ac
고영
끼어들
학창
인해서
계약직
어딜
피츠
아날
하우
양현
엇갈리
##ID
##기금
폭우
등극
중앙당
옷차림
로우
World
벽면
여하
소치
명나라
##ater
신형
하차
오월
쪼끔
난관
끌려가
박혀
피아니스트
청자
구동
구애
수돗물
으실
매혹
행정관
청취자
보일러
나타낸
몸집
윤기
참신
가파른
노자
자행
들으면서
요리사
왔으며
외침
짓밟
간소
교구
##실히
회귀
갖춰야
위배
넘어갈
##니스탄
더해
버려야
행방
항아리
들린다
레스
퍼졌
여중
요하
편집자
면밀히
공용
솟아
잔여
소소
심했
독감
유착
말끔
만장
##더기
릴레이
날카롭
선체
모의고사
대공
##맞춤
어필
포격
투자가
여운
집니다
##캐피탈
획일
ar
서강대
실마리
엔트리
해양수산부
##⠀⠀⠀⠀⠀⠀⠀⠀
강령
제작자
어쩐지
터득
난이도
153
테일
돌려받
보행자
화답
장외
취업률
불거지
통학
웅장
##ath
봉화
청하
기종
밀레
경량
편익
동백
맞선
병합
따라오
##act
한성
내성
강철
야스
상수도
BB
몰라서
제때
초교
나뭇가지
실속
포화
주워
만회
1966
완주
149
어버
도사
양재
태그
귀하
틀렸
AC
지휘관
##행사
it
해산물
##키스
줄어든다
청소기
산책로
러블
오승환
다가와
학파
##ake
경제학자
생겨난
마오
흐트
뒷모습
즉위
여호
GT
려니
지중해
KS
중남미
따스
##전기
센티
##넘기
식초
현물
공범
주임
실기
영성
##르도
때론
세관
가다듬
초연
경제력
택한
변증
고법
조광
##듀서
이선
수사관
박희
구매자
양손
두드러지
치닫
몸부림
담겼
WTO
강서구
순종
164
점거
굴복
소름
프로듀서
정수기
놓이
인사말
래요
가솔린
됩니까
원룸
민망
편법
지저
비벼
확진
##사태
어찌나
Americ
울림
MP
이따금
나지
##rid
1940
뱅킹
1961
파출
홍익
걸치
살포
KAIST
##르타
섭섭
매듭
후보지
분홍
매화
레닌
연희
멈췄
드로
이문
선구
집요
함성
중력
##서스
터질
다변
퇴행
금산
아랑곳
명백히
묵직
##케인
커진다
일주
고소득
사라진다
윤상
척하
이랬
문신
궁중
올라간다
적십자
간결
하단
통틀
들어온다
ㅇㅇ
단언
덩달
성수기
칼국수
##천동
320
펜션
돌파구
ㆍ일
끝낸
일축
판촉
재판장
자이언
엄두
야만
IBK
서경
강정호
AM
##버린
고령자
에티
##영수
사고력
딜레마
됐었
자백
기준치
아울렛
범하
찬물
멀리서
260
박동
쟁이
종양
초안
1964
다져
Co
넘어지
패딩
반대편
침범
페널
중량
공권력
출세
##클리
##HO
첫해
뭉쳐
구직
선입
형국
신속히
조사단
교량
##정식
농심
##form
책자
미약
브래
뒤편
유라
기만
연장선
페리
혹시나
현대캐피탈
경상도
불법행위
제철소
##ower
동대
미야
세정
빠짐
구약
##어낸
##차근
무실점
입장권
연하
들어도
소시
##웃음
성황
산모
##시티
제반
주선
뭘까
건국대
방패
차근차근
브이
##휴일
경전철
Korea
129
위기감
그르
데려다
선인
슈즈
패드
딜러
죄책감
하이트
##십니다
그리스도교
전가
##뿌리
배심
기내
몸값
공교
운전사
##정사
어버이
상세히
발랄
##ress
워크아웃
남학생
앙상
완성도
##창기
기승
##지방
1946
프레젠테이션
이정현
라곤
우여
이래서
연회
부지런히
등장인물
부디
에버랜드
##국장
준다면
다문화가정
컨텐츠
상황실
##대장
겸비
갔었
절단
블라디
능선
로라
외계
투여
칼날
##산동
뇌졸
트로피
뒤따라
산문
국익
느닷
어젯
퍼트
복리
##ase
선천
이루어져야
##더미
어젯밤
곡식
군사력
##시계
##체육
한국사
소용돌이
빈틈
나위
질러
몸통
획정
빨간색
가르쳤
박힌
경정
발발
외야
아리스토
SF
재검토
큐브
국제기구
##용수
이단
진행자
치른다
살폈
교인
이빨
메타
눌렀
훈훈
연주회
문화원
##ere
양당
인친
두들
각성
얽매
거처
체하
춘추
노부
서리
꾸리
토요
일부분
트윗
MM
##곡절
관광공사
피드백
초선
백두산
성악
음악가
ml
그래프
유례
도끼
피했
계수
사다리
해수부
수락
생식
##쿠스
203
전반기
놔두
플로리
신경전
생수
누군지
예리
사옵니다
잔혹
이왕
NLL
TH
pl
재량
리본
김신
힘겹
당정
사용료
김영란
요런
당론
물기
폴리스
152
청정기
식별
176
시니어
나인
##더니즘
초음
141
일컬
카스
##도전
일품
스톤
##드라마
따내
탈세
로울
바뀐다
스포
으뜸
표했
김범
안식
bl
NY
도로공사
단체전
##모직
신다면
은평
앞당겨
경륜
동맥
##pl
양동
남경필
##토스
개신
꿈틀
강타
치약
획기적으로
우여곡절
연수원
애호
LIG
미네랄
웃돌
보령
운운
라던
덕목
경쾌
승화
회사원
문화재청
갑상
강민
장이
입당
정찰
복부
코팅
피디
신정
창가
가부장
소크라테스
고공
##영화
항생
라마
가리킨다
제일모직
필기
간략
자서
기관지
134
여겨졌
초원
프랑크
카톡
반죽
##무늬
자아냈
과격
Ind
162
담뱃
인파
TO
입장료
로이
올바르
견본
한바탕
모음
특가
스며들
유적지
이태원
치사
수도원
안양시
물들
지켜본
역도
##보이
옮길
버텨
##작물
163
원한다면
RO
내건
뒤처
##소스
박병호
장세
뇌졸중
해져서
양궁
##나가
쓰러
Gre
취항
몰아넣
전속
이근
일터
나들이
##아시아
국보
뮌헨
진공
첨예
##경찰
멀티미디어
동무
초빙
제스
질책
석학
빼내
분별
분향
기본법
올라서
아닌가요
플라자
근력
##하라
직급
밤낮
치러진
다가갔
증축
##마는
거주자
힘껏
##ax
프린터
초창기
아이파크
귀여워
개동
독보
이월
들썩
무지개
##out
웍스
창피
피워
낙엽
##꼬리
스와
스트라
귀속
오리지널
##ade
김해시
운하
전쟁터
제비
지킨
침공
착륙
유년
이토록
강대국
직격
##제당
스코틀랜드
##데요
앞날
공휴일
곁들여
정운
망고
플라이
무소
지켜봐야
##초리
성문
동선
##ans
개점
가슴살
146
##도리
앞세운
영지
결핵
##민턴
청송
밀어붙이
담그
두리
이소
##ime
수억
기자재
근린
건넨
복직
탄성
청라
설계사
성북
##ME
des
고품질
어서다
인척
으흠
둬야
부상자
발전기
문어
선의
매너
청양
제일제당
크레인
내국
대미
TK
##회계
유린
NGO
나경
148
램프
중생
점퍼
느껴질
손꼽히
##악단
평준
대출금
나스
얼핏
사교
함축
168
해적
##둘기
청나라
구태
Par
헤쳐
신민
##런치
무한도전
김제
거래처
##ublic
펼쳐졌
기울여야
조급
147
인질
DB
예기
아니야
알라
전폭
사부
오크
학비
해본다
아프가
귀가
민간인
가습기
전립
업주
뱃속
유영
##노이
내시경
제인
게을
##ound
##evel
복식
##쿠르
얽혀
예절
천상
머지
선율
포스코건설
Gl
분실
서슴
장신
##부족
별장
저격
펌프
지낼
143
채찍
호프
방콕
낙인
##그릇
표류
저승
가열
유니버
이천
정인
해커
귀띔
모로
세워야
아슬
김현수
개도
##젤레스
갈증
발광
흐른
##리나
스치
서늘
하계
흐뭇
반공
보온
오죽
블랙리스트
##ution
사투리
인허가
프로그래
이철
분사
##을까
정세균
ㆍ사
흉터
양승
틀어
폐수
관대
원년
##도록
비주
##돋움
저탄
저변
페루
소수자
고단
쿠리
발돋움
##row
선상
##BM
##ild
떨쳐
##nal
아날로그
아프가니스탄
다네
케네
장동
탄식
잇단
실험실
수심
확연히
##텔레스
that
존스
극동
비워
파병
##바퀴
ㆍ도
루시
그러니
드루
저러
돌릴
공해
KG
der
공손
땅값
압류
손짓
Car
검색어
MW
인권위
우루
아찔
전문직
잭슨
##예금
춘향
호화
##상가
레일
말문
갑작스런
고갈
알아들
##아아
131
몸살
결사
공관
훔치
권위주의
인수위
빠져들
사정관
쓰러졌
비약
거취
숙여
여종
오마이
갈까
다쳤
매기
파탄
산골
독거
##제리
노비
라니까
고등어
거인
미성년
아리스토텔레스
발리
멍하니
골절
들렀
황홀
열렬
망원경
흑백
번번
For
스킬
1910
cat
할부
일과
추월
정치학
절도
데스크
##게이션
약혼
배드민턴
DC
친하
세법
지으
##사전
종래
가까스로
내비게이션
채웠
계류
빈민
##갈이
김시
와도
코르
##라기
기록물
미덕
내려다
심도
회의장
##오드
지닌다
##광역시
161
IPTV
맞출
처했
립스틱
페인트
at
충실하
세습
학자금
즐비
불의
걸어갔
독수리
중소기업청
et
줄인
카피
베토
산뜻
참담
##tis
모건
으면은
정치가
채운
편해
사색
섭외
캐시
사극
아낌
느긋
신의
넥타이
베이커
토의
유망주
뒤진
CGV
베일
제격
이범
##생긴
감초
니라
볼게요
부산항
뛰쳐
모노
현주
윤종
금년
친다
현행법
만든다
비엔날레
##up
종식
Har
##리에
어부
가출
현대사
음료수
강소
능숙
걸러
보고회
근래
서랍
좋아했
로펌
새로이
변할
기억력
증여세
동일시
스터디
현저히
청동
쌓았
신항
수용소
아득
펜스
예정자
미디
횡포
달력
##활약
연합군
##파업
힘써
##관리위원회
고귀
각하
조연
김종인
안타까움
달할
##시험
낮췄
김광현
어법
주원
고졸
근사
무릅
또렷
이방인
밀크
다량
##우트
에이전
신대
1700
기고
환한
거트
명실상부
ID
백혈
맴돌
138
나이다
이동국
닛산
##거진
cl
##코스
베토벤
현저
책무
플랫폼
부림
결속
메밀
뜻대로
배당금
158
다졌
무어
서신
천도
개수
ㅠㅠㅠㅠ
요기
셔틀
노점
절개
프린트
⠀⠀⠀
길목
문양
사수
##CI
##영장
166
구민
선거관리위원회
출루
현대그룹
케네디
##날두
찾아다니
스테이지
정태
##혁명
취임식
깜빡
어촌
창녕
OK
##꺼풀
채팅
연유
저명
호날두
느린
돌출
외지
##지원
모터스
모차
올려다보
충원
총파업
야식
1949
선봉
수순
무르
헷갈
착안
단의
최성
한문
잡아당
네오
맹활약
시피
낙선
폐막
BN
눈가
리프
수하
선언문
International
##푸스
멈춘
수작
##송이
절충
##뉴스
안착
스탈린
유람
다케
##만금
휴지
기묘
투사
사시
객석
대청
서북
권오
어처
교통안전
뒤집어
경작
칠곡
##께끼
블룸
실렸
테러리
리니
느슨
수수께끼
저널리즘
페르시아
경치
김소
둥글
선후
##니당
내과
142
박인비
사계절
성과급
노조원
후방
엔딩
면회
소나
##라노
내뿜
저성장
아로
파르
se
간디
다섯째
BI
서영
꺼지
마는
##밸리
조형물
적중
고국
우즈베
헤겔
드러낸다
안산시
어처구니
역력
##누르
PF
##TN
##TC
아인슈타인
파기
문학사
CI
PS
굴욕
##대사
##절기
돌발
캡슐
슈퍼스타
기강
정오
주점
발현
술자리
엎드려
녹여
양천
난항
걸까요
해부
부러
방사성
김보
##LPGA
피라미
버핏
LPG
특목
우습
봄날
오줌
빼앗기
띄우
본국
SDI
##ondon
칼라
으냐
보정
##폐합
미비
제네시스
중성
스위치
##무장
##프로
대추
내공
##오른
갑작스럽
메탈
환전
변인
출사
자가
연예계
안치
목장
피싱
옆구리
정글
참여연대
ne
넘길
172
도가
외할
커머스
##지우
꾸민
자갈
스트레칭
삼키
혼동
한판
동월
문화예술
도화
후작
빌린
왔었
싫어하
끝냈
건드
계엄
뒤돌
애완
저수지
##봐도
좋아한다
초상화
테크놀로지
저탄소
세간
쇼트트랙
김도
도리어
콘퍼런스
의결권
성수
핸들
만족감
폐암
페미니즘
너스
정열
도교
##재료
##앤젤레스
헤라
부통령
##노소
항생제
##스피
성장기
삭스
링컨
모아서
엘지
로스앤젤레스
갈대
뭡니까
생동
낙태
더미
신세계백화점
캐피
검장
산전
산길
에드워드
연달
제소
대군
영월
절묘
닭고기
이드
군자
꼬치
황후
후생
##폭력
단조
멜로디
밀러
기념품
낭독
돌린
자긍
과대
등교
##무사
##떨어진
꽃잎
다친
행안
##착오
마일리
태화
길가
김규
비주류
ML
스트라이
소관
최하
휴먼
지폐
연필
##conom
수십억
교차로
시행착오
지지부진
나미
경비원
쳐서
혼다
As
몸담
뒷면
증기
위크
기억나
한테서
4500
달성군
수출액
흔들림
매칭
담아내
서예
다진
트윈
171
라이언
174
새만금
수천만
휴무
프라임
성리학
변비
플루
유시
##호흡
명장
이청용
밑바닥
극찬
해인
굵직
기껏
남녀노소
법대
550
불릴
뛰어든
맡길
벗어났
이쁜
이여
떠오른다
요즈음
색감
법치
폼페이
##보증
서울역
ph
개년
외로운
능률
##터카
미스터리
귀결
디바
할애
##arket
2021
##ournal
시안
집무실
냉소
##식물
Be
London
박명
황토
소행
못해서
##치아
저력
##득이
네일
담당관
변제
지망
전업
배설
렌터카
비둘기
사슬
계약자
울주군
조력
모차르트
송구
기탁
167
실화
토해
괴로움
퇴계
뒤져
관청
수줍
오메
Or
촘촘
휴가철
슬기
전지훈련
열거
##OD
서두
바랄
통폐합
##로이
정신없이
보안법
철원
개연
는디
지름길
갈릴
노회
조교
자긍심
율법
##천리
##배기
하부
PK
젓가락
일렉
임시회
전입
캐피탈
##지역
직격탄
펴낸
사이언스
모텔
안상수
CT
경악
윤석민
상체
미라
재혼
급속도
파편
패러디
##ool
간염
##태평
내준
모성
##제표
대내외
황우
발렌
웬일
식용
공언
리얼리즘
급부상
쾌감
브레인
개업
캐피털
##속기
까다롭
경복궁
냠냠
동질
계획안
아드
재협
##enti
Col
미셸
이보
##폭풍
##더니
디아
재무제표
스텝
박승
원사
난무
특약
세세
고취
선우
원더
동자
골격
워너
개표
물동
상추
시끄럽
객관적으로
받쳐
tr
다구
데모
사업체
텐데요
발짝
##케미
경멸
탤런트
초음파
ㆍ김
op
그리스도인
반쪽
1953
합병증
##yn
자서전
설날
원도
##징계
net
과반수
무승부
수컷
으셔
주총
땅콩
궁리
악의
희소
후원자
##퓰리즘
태어날
맡긴
잠식
포퓰리즘
하프
기형
육신
처절
##erson
Fran
손녀
애썼
##co
##리그
역부족
놓아
단맛
알림
통통
하구
권력자
오타
야쿠
통용
강남역
청계천
##클린
##oul
연민
과거사
탄수
당겨
그지없
식수
용적
비시
떠안
제약사
프롤
지점장
노령
애견
담양
어때요
구강
군림
진보신
연꽃
성형외과
##실록
체크카드
임창
민요
고을
도표
맹자
예결
놀라움
소이다
한림
복면
언행
죄수
##부인과
러시
##ative
가디
때렸
북아
케인
마일리지
동이
풍수
부호
캐슬
호투
농작물
원재료
연평도
650
했잖아요
국과
우측
마우스
단면
엘리자베스
재상
라구요
총알
하버드대
산부인과
정몽준
올인
##그머니
밝혀진
하류
카테고리
토착
움츠
통찰력
레미
노린
한탄
진다고
쓰리
타구
황폐
##선거
유학생
주심
조르
전매
지주사
열대
테두리
흐느
자명
숙원
방법론
아쿠아
와일드
접점
로프
탐지
##닐라
장흥
산화
슬슬
바쳐
감량
##매기
동유럽
콩쿠르
절친
마블
완수
장정
##파이어
이회
플로리다
부러워
신보
공상
무의
장내
적격
흐리
어설
노사정
돌아와서
카를
두려운
강압
거래법
머지않
재연
정할
타파
심부름
트랜스
작별
구본
동독
자급
학교장
부르주아
파우더
목욕탕
공급자
본체
진솔
적시타
안마
참된
총각
전할
##ene
아사히
제니
시네마
신분증
허리케인
명료
캐리
십상
##케미칼
검사장
아지
틈틈
박자
조직력
카운트
##구름
놀리
청사진
기공
유자
였으니
코앞
파묻
가져와
전량
로그
야경
##amp
립식
커리어
##뱅이
병우
##cl
모친
모태
나간다는
##ics
가뜩
소비량
헬로
시베리아
굽히
변동성
선거인
부제
심기
영암
전인
쪽지
그려져
아뇨
즐거워
으라는
진위
##afe
합친
변증법
##중국
제각각
자막
방망이
블리
무고
라이온
맞섰
##과이
경의
##ai
거침없이
군정
추진력
처리장
보탬
수협
박민
정석
천연가스
##ization
파열
어수
##사르
##tics
드레
결별
비친
분장
정은
1956
인천항
두툼
월남
예언자
헌혈
##혜진
영국인
All
##붙이
##ron
교육장
일지라도
통한다
조직원
입성
지양
끼친
사상가
번번이
org
문정
이오
주의보
버려진
들릴
무의식
순천시
오디
허니
열세
상소
중용
펼쳐져
습기
전과
분출
##ise
주거지
가뜩이나
리튬
낮춘
후폭풍
탄수화물
플라워
만능
어묵
라미
아이유
전자책
드셔
희곡
폐허
##ins
꽁꽁
불로
엄격히
장년층
자아내
##하우스
##결승
중앙선
남극
한데요
라운지
우즈베키스탄
카자
아야지
프로필
개신교
척결
설거지
비축
소량
떠난다
정호
조선족
##레인지
사교육비
편중
베란다
에디션
##tical
상경
카운터
##거스
피해야
물의
##세지
퇴치
##AN
굴뚝
가성
##BI
대림산업
내구
날로
##oug
치료비
##조림
기와
##ience
##이스터
계실
기체
넘버
재협상
리틀
직거래
말린
완만
##폐물
껍데기
피카
기보
독소
밴쿠버
감금
경로당
##따리
강서
기념사업
전임자
특목고
늦춰
쓰러진
외교통
탈취
터보
콜롬비아
##뚜기
방산
정상급
수력
##ox
려다가
인대
연료전지
그랑프리
창백
나사
남아프리카
열연
대용량
##며시
##돼지
마린
손아
추워
시즈
금상
학설
##스피어
##배추
습도
순응
전립선
강추
과부
169
체인지
파출소
##익스피어
부지사
으리라고
부츠
스케치
맞춰서
보따리
어워드
##리히
구출
합하
셰익스피어
식기
선주
고를
고층
속보
시황
사들이
바구니
##소송
끌어당
듀얼
팔자
상여금
##일치
여주인공
따라야
솟구
생겨서
파트너십
내딛
독재자
실리콘밸리
##탱크
광고주
영업시간
중략
탈환
무이자
달서구
##가요
작사
IR
곰곰
품안
파멸
세차
리츠
운전기사
무릅쓰
##먹이
1955
발기
유격수
노벨상
경건
황급
지오
만년
발작
##ital
가면
Journal
구치
권했
##ull
배반
인내심
##ina
나트
왕따
으리라는
파이낸셜
박현
헤엄
딱지
나뭇잎
We
토벌
나와요
##기능
나돌
울부
석상
173
##이상
고선
위암
수뇌
NO
소령
반역
산청
항산
##gram
재기
겠다
책장
골문
다니까
맞닿
홈즈
연골
셀피
정기예금
진척
번복
수변
후면
스커트
원상
트루
WBC
터트
타개
움직인다
초미
Rep
사은
계량
1958
최민
육류
에로
연세
김태균
CR
복싱
외투
집결
영유
아닐까요
##oduc
##예산
##ile
숙였
시들
울부짖
##문고
수유
비씨
요코
도성
무얼
순교
다퉈
광기
뚱뚱
가옥
곤혹
기행
판다
디오
개회
하루빨리
지저분
봉기
일깨워
##진구
선대위
조그마
오세훈
나아지
사업주
다분
해군기지
안간
##는지
내사
역경
요미
두각
성패
바흐
안간힘
생태계
##체인
까치
위엄
유심히
그리워
꾸짖
노파
어려우
허점
얘긴
인심
이봐
실형
어두워
문성
204
넘어설
완도
Sm
끼쳤
보유자
미륵
생후
피라미드
깨물
파란색
웃겨
오르내리
UHD
두르
곰팡이
안토
쉽사리
암컷
제과
DG
만인
반군
슬리
마누라
퀄리티
##기념
느닷없이
##퍼트
대작
쌀쌀
오븐
전해진다
금정
미아
저작물
밀어
퍼즐
드려야
안전성
익산
예사
플레이스
식생활
황소
연습장
페널티
벙커
에이즈
##용품
유목
380
미워하
수긍
한입
참기름
으로선
신사업
가산점
1947
오미
산업체
힘내
노폐물
찾아간
수식어
포식
외주
TEU
재외
옹기
주택가
잇몸
노을
팬티
세리
##춧가루
배척
접경
질수록
##ric
분유
놓쳤
만전
##ps
소정
논설
잠든
다가서
Rev
정종
에듀
원초
체형
##슬라
계양
금성
가져다주
##마루
예시
이어폰
소중히
진료비
잡음
시간대
하찮
어울릴
원어
사회생활
저울
숭고
놓였
물씬
##공항공사
부설
소화기
연락처
지크
그림책
라오스
스트리트
칫솔
안전망
KDB
버금
##겠다
##하마
찾아냈
끌어올렸
이력서
도적
봄철
신상품
##우병
역사학
##투자증권
정약
풍광
출입문
빠짐없이
굴리
올드
몰아주
##취업
달릴
될수록
심재
음양
서태
스마
정민
from
몽고
김경수
##eth
경진
통풍
암튼
교통망
##rav
다승
위인
개도국
현충
##수단
돼도
현기
사대부
진나라
병원장
서독
후대
##부리
군부대
투덜
연기력
시금
당파
마중
토트
바그
뽑혔
가격대
거물
세계사
출입구
체격
##iel
##학년
시드니
##공서
커브
여길
속여
이변
푸르지오
갖출
보디
이연
목돈
주지사
해했
##ky
감소세
##가와
춘천시
엄숙
어루
조미
첩보
풍습
##ale
노련
갇힌
출가
일식
갑상선
장중
무주택
수인
퓨전
##들레
##마차
송정
아폴
흠뻑
이혜
협찬
고착
제천
스카우트
일사
납니다
로또
뒤바
의향
청년층
인민군
##날드
##르드
##라이나
아메리카노
로빈
삼성생명
신병
바라본
선풍기
패소
##구장
향해서
##심장
준우
강의실
생김
파이터
자라나
카스트
활주
##ons
##air
Me
군복
콜라겐
연립
지팡이
적임자
표지판
○○○
애교
태생
스톡
구명
경협
승승
경화
조제
한국노총
결재
1919
월화
가로등
분향소
값진
사악
나경원
국립대
맞아
방조
##aus
동해안
항변
Qu
##레일
중도금
소작
##리케
튜브
우라늄
나카
유창
천안시
서진
매실
알린
약초
카네
패전
##IE
카자흐
끼니
형수
호출
자판
결렬
김호
자그마
통행료
계장
래미안
함수
##가내
생존자
아프간
발화
게이츠
간간
공습
동천
On
놓친
##계약
입혀
용수
시크릿
무도
##준호
중얼거리
뻔한
가이
총동원
피부과
콜로
데카
이남
내던
작자
##밴드
단번에
##지수
떨치
바빴
법무법인
대감
선한
대표작
DTI
페달
수배
가히
신시
준결승
들인
극본
차용
만류
가상현실
not
선지
무제한
바깥쪽
고강
좁히
정파
투스
동갑
히말라
컨퍼런스
퍼스
옥스
불우
참패
통틀어
수화기
포석
##무시
열전
본명
당직자
이랜드
경질
허덕
인덱스
정차
##렁거리
수저
알아주
산적
윤영
확고히
황급히
과학고
브렉
##린다고
평년
무궁화
사로잡혀
정예
발하
일거
독해
발맞
케이티
국밥
끝장
경주시
왕래
##iam
도전장
야근
밤하늘
천자
소리치
었잖
전셋
하이라이트
기우
일궈
꺼져
지마는
##노동
1959
끼칠
아니한
Med
전문대
불순
모국
훔친
부끄러움
극명
브라우
퍼팅
방류
##케어
수교
폭설
##토토
카프
기자단
틈틈이
최형
구월
보여서
잡초
조윤
내려야
정병
놨다
잘난
내게는
곡성
##둥절
야수
허탈
##inc
가져갔
집어
어리둥절
##지리아
나이지리아
물동량
KDI
숲길
##세데스
히말라야
라벨
뜬다
##alth
관전
명쾌
빙수
승낙
북돋
퇴사
승승장구
메르세데스
제명
공사장
##자치단체
알렉산드
구수
신변
패했
##슬링
가까웠
발해
브런치
쓰일
##iness
감춰
YTN
액자
천체
전환점
윤성
초유
단국
사적
1957
직감
재가
한기
시달렸
연석
파주시
##부패
보험업
남해안
남원
영진
송전탑
석가
기발
들였
멤버십
새기
성가
전시실
게을리
수조
##이어티
숙종
엑소
웃도
실컷
노랑
다윈
받아들인
어린애
##필품
뻔뻔
명부
ㆍ기
캄캄
포근
사우스
KLPGA
안중근
모을
보인다고
가했
리뉴
철근
그럴까
관사
최승
급수
나기
비서실
선입견
그걸로
병장
##rat
이터
디렉
NE
활자
##포동
낙마
도스
시화
따돌리
생필품
구려
두통
##린내
단합
이우
##내렸
심리학자
대응책
원효
무례
마십시오
교란
서포터
##거름
황정
자본가
달아났
들끓
농수산물
접어든
무식
버틸
떠올라
부가가치세
무침
냐며
도식
평택시
어루만
소비재
목표치
석권
주창
치러야
은커녕
##텔링
매료
사르
역전승
흔드
밝혀야
수목원
부천시
숙지
스포츠토토
##차기
스토리텔링
점쳐
판결문
수개
경계선
동시대
기틀
차인
네이처
##지먼트
포구
##echn
누워서
돌아온다
완치
심상정
거머쥐
미러
이율
까먹
으음
순대
man
소풍
매니지먼트
아리아
즉흥
넘나들
학장
책임질
맹목
모녀
결점
퍼레이드
##통수
로군
몸싸움
작업장
##app
애도
ㆍ인
수선
NP
미움
활동비
오른발
밝혀내
줄까
보여야
수탁
짜여
괴리
힘드
롯데호텔
반열
원자로
게르
##ON
냉방
뜨거웠
부턴
체불
후예
Ge
위선
막스
잉크
##태평양
##날리
생각났
AF
매립지
##ven
낮잠
막혔
밀린
참관
블록체인
대장암
주정
일손
커피숍
남궁
SSM
흔들렸
헌정
고이
na
손수건
조동
대서
김양
칵테일
발가락
노랫
역삼
압구정
인적
일구
뻔하
##NC
##oo
자태
넘쳐나
구먼
2025
이직
졸업식
무시무시
##모스
부여받
출연진
애리
돌아간다
몸소
필두
송환
채울
고점
효도
##우치
까마귀
1954
익힌
이해찬
Ass
양배추
코리안
힘겨운
노고
총사
시험장
고상
몽땅
##벼락
왼발
은수
이체
엘프
내민
옆집
희망자
골치
도난
장도
흘러나왔
실생활
화물차
키트
드래프트
브랜
비운
##엘라
지켜볼
##습관
스튜어
##라마
당직
##프스키
써도
하이데
전유
아플
컬링
개각
석유공사
출토
펼쳐질
##제국
양분
ㆍ소
논산
센텀
무등
혼선
##미르
적립금
인승
지은
희박
##슐린
루머
지배력
부정부패
킬러
땅볼
박은
기약
로컬
배관
했어요
강가
장영
##렌스
총량
##의회
초석
ab
기절
스트로
계룡
스케이트
##위성
미식
어떤지
매끈
흔쾌
여겨진다
동급
##딩크
끄집
인슐린
##블로
모셨
축산물
소용없
##카스
민병
영호
정동영
동두천
글귀
어시스트
험난
재미없
부조리
##미리트
스위트
다뤘
보인다는
남방
트렌디
작업실
##푸드
갈치
이세돌
##구이
절세
물색
알렉산더
갈지
답안
##erm
집들이
물러난
##청사
부검
낮출
##────────
ㆍ공
베타
수십만
오리엔
왔으나
공생
라우
험한
은총
히딩크
Se
미신
듀오
개항
해장
##아치
정령
##업소
간지
부름
사무관
세팅
거주지
드러날
객체
소송법
주안
지울
다이빙
롤러
시차
##장치
Bar
선적
달려왔
걸세
갑옷
겁나
움켜쥐
선량
유추
학술지
줄여야
띄워
프랑스어
딸아이
뜻밖에
##코니
CA
##now
코스트
foodstagram
대치동
은사
WS
가장자리
함안
뜨거워
수난
##레스트
부피
본보기
질소
돌진
부단
##다닌
수서
대등
식습관
소유주
CES
휩싸였
혜성
빅토리아
명인
창호
후쿠오카
빼앗긴
새겨져
한명
가덕
던질
피치
조건부
애틋
법사
등단
재취업
##우마
선후배
뒤통수
마카오
유소년
폐렴
##을거리
무술
##저나
구심
##ings
##겨울
챙길
크라이
네놈
사조
허정
한적
허약
문고
극소
신봉
삼계
인회
황해
독일어
최대치
예식
Rob
마칠
주립
받아들여야
앨리스
노태우
반고
수족
자상
분기점
##orean
##렐라
안부
그나저나
달구
궁합
화약
겠다는
미술품
간병
본다는
개인주의
지그
백수
제후
더없이
슬그머니
##ruc
교향곡
루프
소자
백운
풀어내
업무상
##투수
입김
##ㆍㆍ
퍼붓
##으면서
단거리
CM
오메가
처참
득표율
샤오
되돌아보
찹쌀
경상북도
하체
##ty
블로거
변이
불분
허영
넷마
전병
문학관
제너
바오
난처
CIA
천둥
##az
히어로즈
일전
내놔
##반찬
다닌다
순전히
찍힌
피어
##obal
얻어
줄리
분신
팍팍
후드
개운
##료품
권한다
숨쉬
##omer
활주로
넷마블
자화
울트라
목격자
만한
펀딩
화기
프로야구
##amb
##기계
스탠드
건져
온기
가파르
칭송
송치
경리
역주
무너뜨리
사명감
역행
지긋
형용
호호
빈자리
심성
직시
##25
##통화기
##통화기금
격화
##일체
##킨스
대도
##광석
고야
수로
정승
축전
합참
행한
그래서인지
공민
되물
성우
국제선
차가
받침
북유럽
선다
국공립
로웠
고산
배꼽
즐거웠
발열
##마침
불분명
결부
완결
스테이
갖춰져
##다오
##그림
흘린
수역
중전
법리
사체
붙잡혔
우리은행
res
깔린
##ication
세아
잠잠
##ys
내리막
ABC
때마침
형광
이니
레바
순경
계십니다
국제통화기금
일수
편차
선발투수
용산구
##들리
##축제
온화
##난방
삼성동
어다
쐐기
송강
불능
IPO
살렸
테일러
양형
두터운
티브
한화그룹
ㆍ대
신예
스릴러
일그
##토피아
빙상
레이디
원리금
연연
잡아내
망신
신통
예예
빼어난
주치
##하키
##아슬
중앙지
누드
살균제
검역
브라이언
아오
의왕시
아미노
교시
휘청
액정
골드만
고창
아슬아슬
교외
격돌
##레타
##ility
놓칠
누출
위아
##배상
둘러싸여
광안
진격
여쭤
사은품
폭동
학군
장례식장
카자흐스탄
아치
타오르
발끝
태산
돋보인다
찬바람
System
도도
타일
웅크
규약
##에미리트
친일파
킨텍스
FT
낭패
광우병
천식
알려준다
두드러진
나이키
만장일치
가창
미성년자
경남은행
선방
왓슨
아랍에미리트
인다
##임새
##하고
승부수
BS
자자
조식
열사
박연
조서
모유
장가
##레이트
라라
성큼
##아르
역사관
어여
지미
인지라
월성
해왔
고배
반증
역사가
변한다
##보레
스타일리시
뽑아내
##FF
가리켜
##enn
오름세
NA
차이나
정영
파파
찌푸리
스테인
반등
참혹
##거림
스키장
센티미터
##oon
삼성카드
환희
##리스타
한라산
제네바
끈끈
오감
발암
스모
급제
치워
해태
블룸버그
자만
##55
기간제
망상
투병
##보라
기념행사
구타
고파
무라
변방
빠진다
좌측
토머스
정수장
접견
과업
구가
돌봐
불린
비철
혈세
전도사
가압
왕궁
산란
시애
par
##휴가
##테리아
집안일
포커스
박선
라야
##문화재
##fer
##12
설렘
서약
불면
벼락
##33
문화부
성토
##14
섹션
몰아치
졌으며
중징계
막아
맹렬
천진
결연
반동
페이퍼
멜론
길드
340
케냐
이즈
공석
회기
멈출
내분
증원
가로질러
발바닥
##려면
아보
판매자
강동구
##연구소
비키
미투
승선
밧줄
Cent
날씬
마니
부딪혀
정거
버그
대남
우크라
##스럽
##RT
서현
붕어
no
혼수
힘찬
Fr
##라면
도맡
연약
##PA
나트륨
에미
했어야
방언
부조
도봉
카디
통치자
볼일
진부
끈기
지배자
심근
숨결
평화통일
시사회
자카
단발
두말
동종
론가
네모
어수선
Will
낭만주의
연출가
##ix
sc
가할
가리켰
난간
예스
##rig
견과
고속철
포대
##rap
낙원
##earch
오리온스
배역
대파
출격
백혈병
소질
ㆍ서
할려고
마요
##깁니다
금지법
일몰
##ley
수신료
사회관
selfie
우왕
우승컵
되돌아가
병기
독신
스텔
격투
누굴
로이터
참고인
Ag
##15
케미
레이싱
##we
내란
아이스하키
Go
연한
충청도
##99
관세청
통곡
화염
선거인단
출입국
종영
제안서
홍천
마르크스주의
거행
끊기
le
##영향평가
선제골
up
액티브
CB
윌슨
회부
##플러
준설
휴양지
각본
갈리
매수세
이병헌
리버풀
에이전트
걸작
물티
넓이
여과
악당
침구
단층
체리
부양책
초록색
무심코
도다
정희
지뢰
MA
고금리
값싼
밑거름
##조각
천성
파시즘
환경영향평가
신다고
초심
초인
윤회
호반
내려졌
애프
##몰이
섣불리
##자치부
##브스
등락
항우
화원
희극
떳떳
돌고래
안쓰
방송법
방심
파전
아파서
외교통상부
두껍
반출
후반부
물꼬
고원
별거
촬영장
일출
예우
적군
출사표
새콤
행정자치부
su
원문
어딘지
구치소
닷새
흔쾌히
물티슈
미화
유골
상속세
박영선
찰나
형량
##gl
준하
Rel
베이커리
차렸
스팀
낸다는
바란
불러일으켰
JP
변기
ㆍ여
골반
##정보
무드
225
NHN
맥도날드
림프
##블랜드
김한길
마운
##누리
자유민주
마리나
힌두
핸드백
명작
##맹이
##사진
봉하
##VD
고온
화단
말썽
섬진
스콧
##food
현빈
여실히
김포시
잠복
현대증권
콜라보
원론
##더슨
남발
반듯
기왕
버지
정용
최전
불발
개울
수뇌부
구토
053
미끼
##ural
신학자
mg
##게티
하이데거
행세
클리블랜드
SPC
분개
깃털
촉매
##sy
##75
저당
케빈
##태영
##잔치
몰랐다
불기
스완
##RS
유부
마사회
광학
백미
회의록
빙그레
선회
친선
평행
몰아내
멜라
방청
엉터리
용접
선수촌
유유
까만
정거장
바야
본받
무용수
통운
Commun
쟁취
1952
토익
이형
뭔데
서글
터무니없
소심
##que
토하
아군
손해배상
차입금
SKT
기념비
트라우마
기울일
신기록
피칭
우주선
이재오
중개사
수기
축물
게임즈
하의
무기력
물감
죄악
바가지
벌금형
수문
흐려
꺼려
마야
수프
저물
액면
##운데이션
창시
고덕
간다면
일진
구세
파운데이션
산동
완강
American
별세
닥친
##특별
서초동
영정
브리지
더워
##애나
AFC
대웅
부득이
닭갈비
빈약
##과학
연명
##꾸미
러스
내쫓
둘러싸인
불태
트인
시애틀
과소
부르짖
투영
장려금
프랭크
##대식
이성계
##ose
정벌
화고
스트라이크
비석
##의정
##각서
커트
굳히
득실
벽지
면밀
권태
적재
총격
고삐
뒤틀
봐야지
신호탄
외자
소비세
태권도
##ger
장작
살펴봤
불거졌
일면
##베르트
##ision
조폭
##자료
김성태
고춧가루
2400
시민운동
주희
널려
모빌
전래
핑장
팽배
의외로
##봉사
남동생
역내
##코인
영남일보
들여놓
산후
음미
치욕
나타낼
증발
주조
부렸
세척
시판
판명
김옥
헤아리
정취
제방
헤어진
맞먹
심폐
##끄러미
기로
블랙박스
자석
혈통
뒤흔들
are
양해각서
정미
##다드
억류
클라이
##마른
떨어진다는
오차
물놀이
프린팅
유모차
처치
##처리
물어야
ㆍ전
내려서
행자
쫓겨나
차액
입출
채식
흘러내리
##렁크
수사대
칭하
아반
샤프
끼얹
데님
##비용
##cess
지휘봉
관은
외벽
인피
수도권
천마
흐를
##사키
봉합
국회법
La
쇄도
내진
##evelop
##주곡
고마워요
제멋
정약용
무비
유월
케익
싱어
##불이
영양제
까맣
서유럽
서동
inter
물려주
기하학
예치
##bid
트렁크
간파
처신
명랑
방제
루비
월가
스킨케어
하녀
과하
Ins
휴양림
Mc
노렸
헬렌
글라스
벗기
기뻤
이발
걸요
안성맞춤
한다거나
양현종
나약
불금
에워
온다는
플란트
뜻깊
국부
다윗
시외
##질렀
래퍼
마쓰
화소
기대치
다가온다
명가
닥쳐
감내
중독자
강등
풀렸
남길
등용
안병
떠올려
마카롱
눈초리
##축구연맹
썰매
나들
달려오
instad
이토
믿기
융통
경영인
졸음
입힌
검찰청
모진
배틀
지역주의
베이컨
하급
##ream
곰곰이
암세포
점잖
동호인
시문
##눈썹
배심원
최저치
##rist
KEB
광해군
약진
찰리
가도
##효과
개요
##트릭
스케일
망라
불이
평민
최인
이분법
광명시
다룬다
HS
감도
##지가
교섭단체
프렌치
계세요
코노
시식
감돌
취해야
군함
독단
펀치
##가슴
직선제
책방
##적거리
전셋값
떠도
205
높인다
##나절
##동산
Pa
방범
보호구역
비트코인
대소
키보드
병자
인준
슈틸
속마음
모나
요미우리
앞세우
##볶음
얻어맞
이기주의
야망
흑흑
광복절
먹을거리
정력
##일관
##질서
슈틸리케
내려갈
균등
기말
ㆍ수
여름휴가
금빛
갈아타
온다고
응징
7500
나들목
스피치
골랐
단종
숨통
중개업
적나라
황산
##회원
납세자
피서
토스
그자
경시
전문지
절실히
여긴다
동동
라네
일용
북서
송년
블루투스
더해져
애원
기성용
로보
행인
메이지
신경질
##복음
각급
정맥
청담동
LP
체증
유시민
해야죠
박석
창밖
친지
대놓
파리바
일본식
라파
팔린
소급
찜질
섬뜩
비수기
앨런
앙상블
공매도
여직
측량
##sch
1951
못합니다
홀리
시가지
중심부
상충
쾌거
운전석
##━━━━━━━━
유태인
피츠버그
발제
향연
가래
배합
양방
의과
태운
훈련장
자활
Hist
꾸몄
편도
버크
요르
렌탈
소도
소재지
화천
인신
제트
정명
로직
부식
Vol
수개월
아낙
요일
정쟁
비쳐
날아오
각료
편집장
머뭇거리
군비
##충제
그리드
여고생
긴박
블랙홀
봉우리
봉착
선구자
애리조
게릴라
산천
가릴
##ope
버금가
##바리
##자실
KGC
물끄러미
부끄러워
꺾이
차차
전학
##저곳
이곳저곳
제강
도수
기다린다
높여야
속눈썹
의료관광
인부
##agement
비염
##에어
어우러지
소공
허다
괴로운
사월
##igh
곧잘
공적
##만치
김태호
방관
유민
예술단
곧이어
##바위
카다
산림청
Econom
손보
##경영
850
##커피
드려요
기막
이주민
여보세요
헤헤
계망
CU
순탄
냉철
점주
감미
가디언
금물
토트넘
거동
사활
육회
모교
특전
##ener
떠들썩
최경주
420
떨어져서
자족
보이콧
밀렸
카페인
시승
##사관
파국
따라붙
느니라
악한
남양주시
수연
##진흥
조희
##바구니
잃어버렸
관공서
메르켈
배고파
열띤
원어민
무의미
##팽이
초소
양구
신용장
패션쇼
아미노산
이유식
수혜자
초당
손등
##펙트
마스터스
구술
김덕
피로감
밸류
어허
백서
1937
노키아
가르칠
##로워
조계종
##대성
아레나
패자
풀린
이정표
화전
김기춘
You
오랑
함락
##ature
물방울
빠져나갔
양악
##uman
잔금
후후
발단
##꺼기
빈부
캔버스
찾아낸
잇따른
사하
자이언츠
la
알렉스
호국
##순간
등대
부치
##77
멧돼지
너그
하노이
덕수
리가
진실로
290
백종
하리
무수히
비오
성의
준우승
신동빈
정월
한다든지
내용물
찌꺼기
답장
IF
pet
##자루
성실히
키움
다독
부적합
박형
시모
재능기부
##관리본부
초저
피리
하산
안겼
카터
박한
MR
생가
상어
평점
빛났
읍내
##수엘라
존립
공격력
수현
다이오드
비선
첫발
폭주
용맹
금회
못난
암울
원통
통념
소총
지라
남서
반세기
행각
시경
##골목
앤디
퍼블
조달청
발라드
실과
악성
최희
전등
int
갈라지
직계
##중독
권선
보병
1929
포상금
성년
사용법
하자
교육자
회자
장본
##다발
황기
들어맞
순결
자성
##을지도
축구장
순순
더라구
Phil
열량
취수
카니
설악산
##ute
조림
책임져야
불멸
방편
부영
남대문
##해하
절규
오카
떠받
무마
가로지르
누수
레코드
받아들인다
폭언
키워야
ㅡㅡ
빙하
##호영
##서니
아바타
뒤쫓
눈매
문희
되살리
변국
하숙
상업시설
마스
렉서스
물줄기
합해
##거린다
아반떼
강화도
2200
##TRA
사절단
테크닉
직행
##웨이트
파랑
떠넘기
방재
왕권
##ount
테슬라
5500
수의
예탁
##다운
블루베리
Bus
당한다
불운
알차
1936
미칼
다릅니다
남다르
##음료
넘나드
설명서
우두머리
리코
맞닥
하모니
법률안
횟집
당사국
질병관리본부
SH
주어졌
##uk
싸운
발등
국제법
세일즈맨
꽃피
개의
진우
내려진
동맹국
##잖아요
빨갱이
웨이브
유명세
키친
사병
소문난
굴곡
모스
##주부
경도
식료품
##보냈
거르
고깃
변별
기선
SE
기치
드러낼
물갈이
##큘럼
##모로
foodp
밑반찬
제멋대로
니켈
도면
살살
And
지도력
##ott
사업소
국교
데려오
템플
베네수엘라
지로
우선시
comp
방점
공산주의자
였음을
로망
역습
370
김수현
백일
브러
유채
문책
불통
뼈대
##사기
OP
##찰청
영양분
근저
발코니
언어학
누님
커리큘럼
타진
방문자
시마
알아차리
우발
쿠웨이트
오동
초중
자회
진달
히히
도급
##임수
우리투자증권
오정
반칙
걷어
빈소
일병
##17
늘린
볼보
병상
빼곡
계산서
대낮
##진진
풍물
인색
따라다니
볼링
##필드
들이대
토너먼트
티저
EV
매트리스
##십리
##소년단
레고
여단
매끄럽
항암제
##레븐
구금
아브라
유토피아
고위직
ㆍ보
창건
판세
묘하
훑어보
판단력
어림
##타기
장문
##바라기
흐른다
김영철
교민
매춘
어쩜
재조
유람선
##란도
이글
노동계
유병언
OST
전위
안장
야쿠르트
노장
로지
타르
EX
분업
외무성
우방
격파
소견
##45
바쳤
##ble
출항
##미애
선로
리베이트
면면
종아리
더디
리딩
##래프트
대니
예예예
홍명보
복안
##13
더냐
현혹
국력
##대원
빚어지
레슨
미워
알프스
되새기
공탁
비무장
##sp
버지니아
판시
리얼리티
찾아올
담요
이타
백조
사재
정모
어드
엄밀
대검찰청
대행사
플레
면하
병동
제하
살펴본다
한들
밑돌
스메
찍혀
팩스
나눈다
대차
비화
##삼촌
이학
오성
out
포옹
폭파
성역
도라
뇌리
##org
갈매기
배트
자형
뿌린
녹조
1939
민수
##iff
FR
깡패
JY
복당
개헌안
두드려
옷장
애호가
##운동연합
김성근
관리인
필승
친족
월등히
담가
지아
허나
옹진
GPS
부업
질감
잘생긴
장학생
희석
천혜
발톱
주중
1933
매서
거닐
##마당
##행정
유스
제단
생동감
트로이
모퉁이
했어도
##ae
방중
부원장
##손가락
재산세
국산화
AG
은서
헤아릴
##첨단
종주
소극장
애국심
분말
왕건
치하
유니크
마이스터
##유사
수은
그랜저
모독
콘스탄
흥미진진
Ne
이회창
로다
바겐
갈림
격상
면책
위즈
북스
탐정
여라
수세
최면
##푸르트
하물
학벌
묘역
480
노라고
신현
빈곤층
피어나
예천
##yp
서병
all
징벌
일석
장윤
영산강
삼양
분통
정몽구
봉급
나니
슬라
제스처
My
저편
##LA
##ors
김춘
난장
ind
아수
강풍
뉴턴
유재석
소시지
요르단
바친
삼국지
Su
불변
오인
종묘
아이오
테레
##포드
검은색
교향악단
패럴
헤딩
민간단체
허전
똘똘
빨려
헤치
좌완
교통수단
##버리지
오갔
영미
여호와
귀향
비어
샤이
##브르
포획
불러서
경실
리비
갸웃
날라
이동해
강원랜드
시커
피식
화이팅
FO
이북
해이
광채
전태
정숙
was
구례
부려
레바논
상투
인단
한영
밀려나
다그
대장정
강습
엽서
서태지
저점
##아졌
관망
마곡
양조
여러모로
dis
서희
연구비
고칠
티아
덤벼
특산
##스러운
박철
피웠
화웨이
반미
유실
여객기
꺼낸
병들
포티
내무
HP
별관
비문
피조
나날이
뒹굴
통관
##교동
##ese
단수
순매도
페트
고하
리안
변천
살상
##ward
불식
아세요
지은이
허망
성종
알제리
겸허
서클
질량
타로
naver
수칙
실직
젠장
후식
기록부
는지요
약재
##66
고물
꿀맛
삼계탕
엣지
제우스
수모
물길
연기금
장지
Dav
병영
시름
생계비
구내
한스
기출
시금치
전광판
순순히
교전
네거
방탄소년단
체벌
Stud
현관문
슬퍼하
시댁
근현
디딤
##au
아름다웠
박보
방불
일으킨다
했으므로
##로이드
##달리
이채
강신
##까봐
압록
제품군
레전
연사
서도
유고
세이프
검단
##oint
미켈
교육학
대리석
건성
췌장
자유민주주의
간선
성자
팔찌
##쳐야
깻잎
절하
##oto
보여요
계보
라이스
테이크
호세
##모어
잠기
통진
결정짓
물놀
신간
체념
new
꼭지
끝난다
##장수
하나같이
장단점
회유
우기
영락
벌어진다
시찰
원할
do
식빵
##21
위기관리
끈질기
전구
솔로몬
묵인
##IM
현우
야산
두드러졌
요번
블라우스
복고
##노당
권세
방증
##lect
발각
하회
트로트
아늑
괴테
명물
묻히
누웠
보임
FM
부러지
파이팅
##니티
고압
별반
대학가
토기
무예
시구
수해
한산
ㆍ유
가압류
##만장
하물며
##own
##덩어리
##27
##oup
허기
해프
아트홀
민노당
조중
##받이
##지휘
최형우
워드
머문
대진
##대군
##우주
##잣집
##ange
앞장섰
라틴어
역외
절호
변함없
구자철
강관
마하
cafe
청해
통신비
메디컬
빠뜨리
##석희
어울린다
급선
##대요
철판
명세
철광석
연작
미끄러지
받아
화신
##미아
내디
혼신
깨진
란스
이너
##oss
양립
와요
출근길
YG
하야
유라시아
##득점
으레
제주항공
보잉
붙일
##정지
날아갔
##오피아
뚜렷이
세조
서성
어렴
병풍
쓰레기통
am
ag
숨소리
##수무
안토니
Ab
호적
모션
말년
무너질
##85
사상자
최첨단
##ati
편파
##어링
안색
기념회
벌려
포탄
##메르
반향
외계인
강우
원성
에티오피아
상쇄
네거티브
##ym
적막
광산구
누진
내려간
식중독
회고록
하강
토탈
부산은행
고어
해결사
상학
##ravel
레전드
오송
##혈증
##랑카
주간지
진달래
주성
항체
김철
박빙
교두
위급
##23
해바라기
섭리
웃돈
금발
트랩
유기체
청주시
난제
알몸
다각화
늘려야
기흥
##학습
발레단
단비
김두관
광양시
알짜
강수량
양키스
소라
청순
바라본다
정신력
밀라노
떠서
의중
놀러
수구
진성
돋보였
공정성
장구
천일
쉐보레
초가
##ious
##놀림
할인점
1905
권혁
살롱
사본
교화
두들겨
It
신빙
걸쳐서
##por
전해져
수트
날린
선거전
관음
포고
##EST
프랑크푸르트
사서
형체
우루과이
장본인
##은희
인계
심미
고위험
달려온
스탠리
당은
모종
연석회의
도로는
배운다
보쌈
호통
윌리엄스
##니언
##착륙
크리스토
WHO
로열티
공덕
부유층
어뢰
곤두세우
##상정
해프닝
드세요
따낸
식도
그린다
잠겼
마가
이끌어냈
훤히
환경운동연합
와우
영등포구
음력
기린
진찰
한경
스파크
신관
부서지
스트리
납작
세브
타이거즈
미완
가운
문무
물살
마그네
부축
##ness
덧붙이
깜깜
전기료
최태원
##으리
후일
인공위성
추도
튀어나온
금천
문전
판매점
핸드볼
건재
신태
함박
허덕이
라멘
즐긴다
스테인리스
패한
ㆍ중ㆍ
추스
티스
단호박
뛰어다니
팀워크
미백
맞히
도립
땅바닥
##문제
선하
붙여진
이만큼
등불
밝힌다
##24
그린벨트
독식
려나
발신
박완
##멩이
비행장
아몬드
성탄
성욕
쪼금
라온
별미
최현
함평
번져
풀릴
요직
뽑아
하순
6500
싱크탱크
##베이거스
메워
엔젤
##재판
해운업
라스베이거스
##ery
어렴풋
PER
담회
문진
주물
경부고속도로
장엄
조심스레
안구
임재
찌개
##종일
Inter
칭호
##에다
##홍철
##쓸이
두목
시향
재치
찢어지
기제
일절
동태
에볼
금형
SDS
기교
사들였
살핀
천리
시흥시
##atch
보아
두유
통할
발대식
##35
찬찬
리카
##벌리
싹쓸이
패치
아이구
##네이
목청
투데이
종단
외압
흔치
이용료
대제
이뻐
선양
민첩
310
나그네
콤비
제빵
치웠
염기
바티
재인
여대생
##길동
중앙아시아
소실
설립자
변함없이
SA
단락
시늉
베스
김중
토사
거느
뚝딱
뒤따르
방지법
##28
청구인
레이건
일례
가자
각별히
대대로
의전
이정희
대물
수진
윤동
##산업개발
미진
윤희
206
스냅
##ler
투자처
도처
돌멩이
부침
사천
팬택
간암
비대칭
국민당
##ning
경각
한명숙
애용
였으므로
항문
가벼워
남인
살충제
혼잣
외삼촌
##타오
노회찬
사비
영상물
이완구
##pt
사의
##sc
1938
사우나
풀어놓
완벽히
제리
##16
독립영화
다가갈
미로
종용
피카소
자산가
그제서야
뽑힌
타지
평했
수혈
인포
조양
이덕
던진다
상록
##듭니다
짜장면
숙청
오두
##더드
청했
나온다는
파이널
아름다워
##ett
징용
기다림
성행
평지
지나갈
ㆍ부
레슬링
최문
흠집
##러브
##회전
갈림길
반주
재보
##거품
차관보
현판
무용단
노린다
일월
클리어
생리대
창업주
분담금
NBA
순한
숯불
뽐냈
허둥
범어
흥청
##년기
투표소
낱낱
2300
아낌없이
시몬
낙타
Social
자가용
per
글리
##파니
베푸
거듭날
##cle
최고위
GTX
##조작
연례
포르노
나루
슈트
넘어간
다분히
WSJ
##세웠
인화
부드러워
연천
수임
##시울
##베르크
근교
지어
죄다
기뻐했
주효
출소
떠밀
아스널
프란치
낙서
One
금수
흩어지
민원인
눈시울
##재해
##US
증빙
지방산
샘물
황우여
430
후려
단상
일임
내키
흐릿
편승
탄광
활로
본드
사카
빠져서
##불명
합천
##사장
그리운
공부방
반정부
현미경
커스
트라이
##land
점하
서식지
이과
슈퍼맨
제청
허름
오비
##중국해
행여
##제강
약수
암벽
##바바
##ouse
힌트
경실련
난폭
열도
등심
바래
부들
##신호
마주쳤
지반
##마니
MIT
서천
추미애
올려야
Cor
진시
미간
##der
##ont
영유권
못함
악물
카인
하여간
젠더
스탠더드
관동
찾아낼
사발
쏠림
##95
외대
##치산
오케이
넥스
무작위
프로세서
쳐들어
##ays
보위
관저
교직
크리스티
진주시
통감
캐치
모신
감귤
쌀국수
악보
섬진강
은빛
뚫린
빌리지
파헤치
백색
무더운
누운
soc
옥외
오락가락
납세
숨겨져
발맞춰
의복
임태
줘도
평원
공양
👍🏻
솔선
매운맛
시종일관
취한다
대통령령
부문장
##버릴
휘둘렀
공복
모더니즘
##my
##델피아
서대
힘없이
커녕
왕세자
회개
삼국사기
차린
던데요
USB
경련
##여정
접했
특공
중심주의
없앤
앞당기
경차
주술
##박질
패스트푸드
##ficial
상작
이봉
파이어
저놈
##각색
##26
무위
##CA
한정판
##머니즘
모기지
##iety
영아
편식
홍문
##교사
다락
순항
##효진
걸어오
외할머니
##회관
워시
윈도우
마담
##덜미
양치
역풍
질식
평평
네이트
##버스터
소울
해직
가야금
팔짱
영화배우
공경
들려준다
##any
최하위
치장
경미
변덕
뒷전
산만
안종
정신병
이광수
가지런
신협
연마
세워져
우스꽝
독립운동가
갑판
삼국유사
추수
##티노
리프트
##ated
필라델피아
##formation
무스
##44
207
조원대
선종
카메
소나기
##해튼
xxx
완제품
질려
공학부
##ford
학번
물러가
플러
##톡스
서귀포시
둔갑
##시원
질리
##서기
아련
Sec
수놓
KOTRA
속삭였
대할
돌이킬
##촌동
MBN
빨강
녹록
##럴드
길들여
##중기
문창
제수
참으
큼직
비겁
무형문화재
지날수록
##정원
##간접
이석기
조준
현대산업개발
1941
맨해튼
헤어졌
투약
만리
갱년기
김만
##alk
##인구
선반
해녀
울창
의미심장
민박
버팀
의뢰인
성심
더한
병든
가람
탕수
끝낼
오호
고흐
통했
몸뚱
담수
쓴다는
시바
전생
지프
##수정
못한다고
삼각형
낙점
##혈압
리티
치고
테르
백지화
제형
물어볼
메스
진다면
##림동
조선사
미연
레버
공고히
어지간
수빈
값비
UP
범람
늙은이
위시
박시
안기
##ents
1925
##게이트
방정식
과천시
전류
양태
이요
##상승
##하하
##ited
내보냈
신호등
우먼
##보살
장보고
낸드
말끔히
##코르
자금난
쫓아가
##ould
##정책
북한산
질질
##red
원세
##러진다
게시물
빨갛
쏠쏠
자청
사들인
어획
고해
보듬
1932
사모님
겨자
##중간
망할
겸임
학기제
살아오
fl
신인왕
자력
수학여행
팩토리
##조류
걸어야
민우
동국제강
지선
그을
진가
피보험
된장찌개
한울
##순위
헌장
섀도
국민카드
스카프
빨아들
무턱
취록
##지물
##진로
퇴직자
습성
ㆍ신
과오
리빙
멋대로
애비
에밀리
칭기
##ject
가왕
끊겼
안테
현란
아편
전라남도
잡화
클레이
BO
이언
메아리
골수
저건
세무서
의총
사무처
전자파
부가세
##근무
달팽이
##fl
ESS
거쳐서
이낙
벌어져
여의치
기병
승부조작
정한다
아브라함
신지애
레이크
밀수
려는데
초고층
경영난
라임
친목
몰이
베네치아
안다고
준영
분경
블록버스터
War
개최지
산성
형편없
독선
cc
떨렸
다목
답한
번성
연두
qu
협소
##폴리스
Mod
다나
챙겨야
##19
확연
##로라
##결연
공급량
고만
맛난
식스
잠긴
오아
프루
금주
아디
난치
워즈
압록강
독과
들르
모란
편곡
찬찬히
GO
고군
스러우
##ames
스테이션
희생양
자매결연
둘레길
브릿
ㆍ한
중금속
##지우지
임정
좌지우지
위자료
성곽
안일
##ft
엘리엇
일러스트
재조명
RPG
컴퓨팅
##ridge
기입
프라자
교부금
Fl
글래
중식
메릴
웨이트
호도
대형주
고약
괴로워
부총장
켈리
##ole
쥐어
완승
장승
팔뚝
후미
상계
뿌리치
돈독
황실
집시
양주시
본고
##18
im
추행
매달린
폐사
수영복
캐리어
화합물
벨벳
충전기
깡통
DMB
가와
견줘
##매장
꽃다발
유통망
오자
자연재해
작위
특조
개진
208
버무
##레타리아
느려
증권가
Life
전법
탐라
플래그
동강
AK
한솔
트림
##기념물
리필
문물
유다
불면증
나자
구덩이
시초
##흐로
##치마
삼월
뒷걸음
탄원
카다피
##푸르
재빠
오프닝
헌금
매달렸
바야흐로
rel
체구
풀어
##렌트
반반
나팔
비탈
Book
##화질
프롤레타리아
##공주
걸어왔
송신
속살
참외
화목
##좌석
##지구
##ze
천연기념물
스마일
이효리
명하
울프
굴레
진짜로
중기청
모서리
신당
구급차
걸어온
알찬
카우
신데렐라
야유
교두보
억대
제주시
Pet
벌거
성취감
뭉클
엄선
왕족
안재
애틀
접착
##미리
복습
##ates
넓혔
부주
불매
논어
노량
엄연히
트레이너
문맥
##팔트
바자
일파
대놓고
National
교문
아삭
조승
들이닥
짊어지
혈중
##ald
걸으며
미관
##르륵
실지
필립스
정운찬
내추
##lex
야후
교습
##데시
개소식
아스팔트
사살
##택시
##창수
국민대
도비
##yle
샤넬
거렸
김부겸
다녀야
되짚
그려지
KBL
##감독
미래형
졸리
카탈
##여름
총영
공리
물거품
진중
하남시
이권
DD
##화학
두리번
대원군
국제축구연맹
간간이
사와
중령
드실
공모주
백업
사이다
명지
숙주
끌어들여
신조어
위드
##에이터
벌크
겨를
떠오를
리온
이홍
실망감
사저
원청
##르노
사립대
Her
회비
비지
만행
연단
산신
아까운
##르트르
프렌즈
껑충
우빈
##rain
애프터
후진타오
히스
된다며
애절
불륜
왜군
강호동
##수무책
##비슷
지정학
불명예
속수무책
극소수
풀뿌리
팰리스
세르비아
##누이
전서
##글라
고은
##의지
나아갔
밥그릇
##캉스
브로드밴드
Pe
각막
##수염
열강
응대
제창
협주곡
바캉스
도자
뿌렸
긴밀히
모리스
##사항
값비싼
속임수
##댕이
문제집
바꾼다
도선
미남
임팩트
지나쳐
안테나
디렉터
게장
정강
심장병
유대교
Is
막장
크롬
끈적
메드
##세라
노라면
내추럴
연봉제
아뢰
세워졌
펑펑
이낙연
##림픽
카리
론스타
영영
id
백과
뒤졌
##카와
##MCA
시추
부풀려
오보
헬멧
정박
Global
울분
신중히
욕조
차곡
엉엉
##ely
##일비
##레오
##튀김
조선대
대수롭
밀폐
빗발
##못해
대당
백남
이승훈
##ium
다이어리
##evelopment
묶인
회가
자몽
석회
윤활
바싹
니당
지원서
문사
우의
재경
App
정주영
##sych
고관
놓쳐
전기금
신천
칙칙
2100
구도심
제갈량
맥아
스콘
##이동
출산율
DVD
분대
폴라
사려
##드기
어류
궁지
다람
릴리
별자리
유원지
구매력
지하철역
감액
##르바
비호
코코넛
어울림
안드레
승기
막아내
지사장
겸하
삽화
점막
1907
잔재
##수도
https
모피
포맷
혼잣말
가느
빌어먹
쇠약
최강희
불어나
승복
##틸리티
##정사실
기정사실
펴냄
난데
툭툭
256
사행
##스타일
간곡
투숙
고프
나온다고
희비
무표
폐교
무서웠
ㆍ제
반부
외쳐
거침없
접해
페인
##연료
어진
쥬얼
##29
윤리학
표고
아이비
경대
냉혹
상민
미즈
유틸리티
닫혀
빡빡
동그랗
집적
##스케
520
귀촌
##정리
지구대
가르친
215
재가동
반신
슬럼프
끈질긴
채점
알고
낱낱이
중종
실록
황혼
산산
오대
콜드
정성껏
명태
공시지가
가신
1927
도토리
원예
양천구
관현
첼로
문과
싸워야
이동하
##탄불
얽매이
노블
밸브
한국군
소형차
급박
불러오
체험학습
헬리
맞아떨
혈연
가로수길
문란
사들여
철제
UE
처박
##랭이
장현
209
SI
애틀랜
공터
보약
셔터
오롯
연남동
조목
선크림
뜬금
뒷좌석
어려워졌
제프
올려서
고고학
감칠
trans
pol
꿋꿋
민회
이스탄불
여하튼
##만큼
관영
분분
정치권력
독한
잡아가
Dis
성난
노숙인
디딤돌
빨랐
정품
감독관
기라
생김새
중환
2800
꽂혀
##적ㆍ
부안
방도
양용
오오
머리칼
판서
도배
##케이크
##유리
총력전
지껄
협연
##니엄
이웃집
낙천
##로니
반년
##체능
보내왔
휘감
##플릿
##otd
구마
백억
어쨌거나
비닐하우스
##43
레이트
봇물
빽빽
샌디
블라인
##89
밑그림
Per
날렵
루소
찰떡
물리학자
##버시
무자비
요양원
환절기
양산시
##폭탄
등록증
끌어올릴
게나
새내기
노점상
테스
필수품
아산시
발사체
루마
희한
Je
후추
##ervice
기생충
빈티지
공공연
이맘
눈살
아기자기
유니버설
박대
돌아선
골밑
안과
외야수
연화
특파
가꿔
영화사
ㆍ시
무거워
Ver
재회
북동
강석
리허
전범
새싹
탈레
찬송
상도
감염병
알고리즘
니혼
##군데
외양
군위
카마
하정
만루
한승
아우성
살림살이
으랴
NAS
선화
마리오
끼여
로얄
##플릭스
자화상
각색
386
YMCA
시제품
강경파
성완
획관
지나칠
official
런닝
잡힐
상냥
##훼손
1931
신드
댄다
good
넷플릭스
도련
무패
##나스
그이
화훼
디바이스
부적격
임상시험
송아지
대기실
ECB
으쓱
오니
예정지
스핀
배짱
매거진
배고프
장마철
##ission
##net
이유로
Robert
김상곤
박광
분뇨
빤히
허비
피플
경각심
기장군
반달
자임
##무새
Char
본청
위약
팝업
굴비
근무자
부연
토이
던가요
국무총리실
에너지원
선형
천정배
홍보물
스팸
악어
피켓
함의
학도
TPP
행정소송
사탄
##공개
알파벳
하이트진로
코딩
##대간
체득
##차곡
차곡차곡
결손
교주
외연
내림
분만
그려졌
휴스턴
무르익
불러올
##스턴트
##트로이트
라지만
지훈
구정
뚝뚝
데카르트
박제
테러리스트
갑작스러운
##유국
상영관
핵연료
이리하여
임영
스파게티
장성택
인먼
유키
##31
정부군
두려웠
스크랩
##꼬박
행군
꼬박꼬박
난립
단양
박테리아
쑥쑥
연수구
정두
이끌려
정육
도의
동떨어진
리즈
되살아
발행인
점원
##연재
백두대간
William
디트로이트
기무사
곤경
민지
블레
##42
##창호
특선
힘주
##코트
MRI
수완
덮밥
동양인
##샤오
Techn
조재
피살
결석
##ext
기웃
1926
망설임
알로
조병
구구
나직
성완종
윤정
물으
1935
프라이버시
읍니다
특단
가평군
코프
##구려
루즈
산호
인스턴트
중공
말소
Ber
휘둘러
버팀목
금융업
쫀득
배지
선취
한구석
##ther
궁핍
폄하
조끼
가업
##덕션
자물
쟁쟁
미키
타령
페미니스트
눈부시
광활
져요
가곡
환호성
##프라노
묻어나
지천
MLB
민트
##스태프
김재철
데요
비밀리
일회성
조우
##요금
리메
크라운
고택
감회
예체능
지도층
우렁
어벤
수학자
락할
샐러리
포터
##성기
염상
##LO
금오
속셈
데이비스
세터
신춘
동식물
하층
정확도
##아티아
##ㅋㅋㅋㅋㅋ
gr
피조물
알아본다
##전쟁
피렌
가즈
필로
노니
와해
군포시
##저럭
추징
고려인
온건
독촉
서커스
##버터
##★★
코칭스태프
고달
명당
유업
프랑스인
mod
다기
막무
매미
하이퍼
부쳐
제보자
덮여
와이어
##럭저럭
BNK
탕수육
##48
CMA
억누르
노원구
목구멍
막무가내
겸직
성호
전권
심오
##링크
악명
배아
전동차
##극장
##47
엇갈렸
흔들릴
맘껏
모아야
입소
병아리
읽히
블로킹
궁정
균일
펄펄
두드렸
캡틴
Poli
하염
##ction
황량
##티티
1944
강연회
스타킹
망막
##광장
크로아티아
진통제
스푼
판가
분석가
레이어
보루
전관
기사단
##덤핑
구설
구겨
주눅
폐단
징역형
##트럼
토론토
살아간다
진급
창사
가져갈
노크
더라는
로크
승산
##일레븐
만사
가발
선례
씨발
뿜어내
크라이슬러
음색
방광
정찬
콜린
app
젓갈
김치찌개
러서
플러그
피신
체지방
##rit
거사
검문
천호
##ality
Comm
주례
도축
블라인드
ATM
싸인
차도
ICBM
##구치
반덤핑
시편
알리바바
획단
나눠서
초미세
오색
실루
필하
차단제
440
강팀
가점
묻힌
엇갈린
정혜
228
명예훼손
기마
자유자재
올려놓
1934
송승
저버리
##보리
발자취
양가
감명
씨씨
##46
##거슨
반대쪽
골라서
경구
흥국생명
머스
세븐일레븐
미나
이제껏
리허설
산양
스몰
질린
##바이벌
전조
무표정
상병
여념
화나
##타자
불어오
Fed
궁녀
인류학
정유라
미국식
적십자사
열의
##olution
열심
평촌
활기찬
너비
216
패럴림픽
모름
##로호
##틸렌
행정력
포섭
신드롬
사무장
##iation
##던트
2700
고조선
대일
주군
235
스펙트럼
마신다
흡족
종교인
무궁무진
총출
IN
코인
기다린
가물
이민호
블레이드
퓨처
노년층
옥스퍼드
장충
퇴적
원정대
로직스
수두
펜싱
연우
건강식
과속
맞춰야
##ency
무주
북대
퍼거슨
헌병
##PI
얼마간
공공시설
1924
어원
수치심
NYT
낯익
디펜
콘테
섞이
의인
팔상
##저가
##EN
기해
보합
##ET
오미자
Gu
선발전
##다툼
2600
참회
기표
##각형
그네
##urn
김진표
강현
라거나
달리기
응시자
레포츠
##PR
수아
아래층
##펠러
##만두
##72
245
누설
피상
계책
돈벌이
때린
슬라이드
풍류
##부들
##느질
경호원
걷잡
떨림
라지
마티
레즈
배부르
깨뜨리
벤트
고현
본원
산은
##라는
배석
위세
민노총
김순
사회봉사
계주
아킬
묘미
##조치
최병
##uss
골다
전단지
##eng
지퍼
항공편
EL
표제
화교
헛되
Eur
##나간
축축
거버
무용지물
고참
달랑
변변
##41
##프레스
Public
제너럴
홍길동
강산
깃들
고화질
문수
특파원
랠리
460
한국일보
추계
cont
달아오르
외제
연해
일신
신년사
달린다
발포
버젓
##나비
수공
제언
올라타
다면서요
스노우
뻣뻣
신격
첨가물
완구
독과점
부록
모면
구심점
안내문
날뛰
용선
교과목
율곡
황재
##글라데시
생태학
김광석
봉인
위트
수출국
FBI
방파
통쾌
응집
입담
한족
시무
##메스
겨누
문호
옥시
1928
we
ㆍ국
마자
절상
영통
보르
우화
산사태
서대문구
경수
1914
단초
얌전
찾아온다
끌리
질까
단도
##치즈
위아래
손주
일률
가정폭력
Part
닫힌
수려
##분투
프랑수아
청렴도
속삭이
다시마
영일
##두부
간질
생업
쓸모없
할증
고속버스
동창회
그랬었
##더라
괄목
불태우
이상민
일렉트로
라이온즈
급선무
리턴
제쳐
포유
푸념
민경
온종일
데크
부랴
손연재
통기
하영
난다고
기껏해야
고품격
이걸로
무개
##79
부들부들
방아
매겨
눈꺼풀
아틀
은행나무
세라믹
유휴
직설
드셨
미운
미온
악역
El
대뜸
Paul
뒷산
부러움
철강업
교만
방글라데시
Int
주어
우리말
나래
##코지
행정학
파마
대별
삼성전기
인터페이스
한의사
상한선
가린
남겨진
##가드
맘대로
##71
프로그래밍
좌표
피임
226
교통량
트릭
명곡
##바르
CH
잠그
비스듬
아꼈
더한다
##32
##acy
퇴색
형이상
항공우주
세운다
권리금
자랄
위키
안전장치
DGB
펴냈
##book
떠올릴
탈레반
마장
실루엣
아우구
히로시마
뛰어났
내려지
인사동
Er
경은
안대
배웅
총출동
돌변
잘려
1942
지난날
매점
플래닛
rec
심할
ㆍ재
진두
라이터
태영
기본급
하수도
##나귀
##aby
김유정
투르
후끈
##36
챔프
톱스타
pe
퍼펙트
부평구
기슭
대칭
몰릴
##르담
설전
혼례
아실
정윤
조선왕
대관령
강희
개발비
선착장
성황리
수증
##제한
황태자
##비어
늘어선
나옴
차상
프런트
##카도
나토
one
동성애자
⠀⠀⠀⠀
사생
징크스
차출
가인
예찬
터트리
형용사
없앨
오수
비자금
나우
칸막이
견주
무화
달라요
슬라이더
##bs
##아트
창시자
묘소
덕택
토스트
떠맡
은닉
바빠서
##led
원색
일색
차남
최원
Am
기권
능히
##ulture
깜박
남동구
전근
후발
관우
정근
볼리
임야
삼청
UC
아폴로
자며
Trans
대패
##크라이나
로브
##께요
게으름
레미콘
나른
레오나
대종
##37
돌아다녔
북항
향방
남조선
말렸
연장전
몰아가
청룡
설움
진사
징조
유념
유급
을지로
셨잖아요
로저
반점
덮인
외세
감칠맛
풀무원
##진다는
졸속
함경
##MI
중흥
연제
##chen
숙인
최윤
셔틀버스
페스
국문학
콧물
연극제
울컥
스칼
송영길
오존
튀어나오
담사
##반짝
육감
법조인
마태
잉태
예비군
일군
사변
피렌체
애덤
##모닝
감사관
이을
해줘
귀추
네스
경상남도
신태용
늘어지
쌓였
공전
중저가
바라봤
기복
물으면
내세울
개천
스스
감가
##ein
특정인
동심
출고가
프란치스코
반짝반짝
가천
스즈
275
수온
폴크스
불감
막대기
중랑
난자
천신
모자란
우크라이나
되살아나
밋밋
스프레이
PEF
Des
짝사랑
카펫
전산망
향한다
선덕
맞이해
장재
흥정
명기
홍진
수천억
자물쇠
빌보드
##덴티티
진에어
산속
투박
지동원
##보호
김신욱
취량
##언정
아이덴티티
시럽
우표
제정신
##하이머
난다는
그럭저럭
목조
별칭
허우
이근호
난로
들이마
미나리
잠자코
이안
유산소
개탄
무혐
교부세
따질
상근
##집행
##very
두른
산간
대산
1917
남친
##공증
중첩
서당
내야
비키니
인천대
양념장
일깨우
강단
시외버스
베니스
아수라
들뜬
동화책
##96
##ating
창녀
당나귀
판독
정상회의
##에이티브
출렁
패기
모티
실외
유성구
재위
##샅이
굿모닝
영결
샅샅이
학연
##att
장밋
공여
거위
부원
원기
##채기
시공간
##앙스
민들레
성현
##78
교학
##뚝뚝
스파이더
고군분투
살인범
감청
마피아
거미줄
돌기
조미료
농기계
##라치
맞물리
대여섯
고주
골다공증
극작
노루
##이면
##다이스
옮겨졌
만지작
난해
오영
핏줄
이황
승강기
합한
주영
그러고
크리에이티브
근속
생산력
개화
겨드
끓인
돼왔
뼈아
철분
530
수전
아로마
매스컴
막중
날치기
덮개
첫눈
GC
드로잉
특임
##lin
바리스타
똑똑히
신령
싸구려
음직
좌초
양방향
솔라
안나
##ful
흐흐
성냥
완충
쫓아내
##세스
상한가
티브이
예문
크레이
단아
한샘
##34
수탈
요로
무뚝뚝
VS
소릴
##ck
박유
암묵
정감
카이사르
겉모습
백설
##당초
놀라울
그만둔
구스
군데군데
뒤엉
여백
##리사
비틀거리
##uty
##연수원
유구
누명
타사
용두
온수
짝퉁
튕겨
##82
##orth
가용
##쿠니
반품
부잣집
남한산성
버럭
도태
애환
풍조
히든
강민호
구걸
##gy
뉴딜
##ICE
닉스
캔디
##막염
테마주
써니
굳건히
임창용
##ally
아보카도
애타
와이드
##tm
work
요셉
후진국
에비
컬럼
잔디밭
내력
서병수
베이지
정일
Fre
들락
일인
큐레이터
헌데
예고편
세용
Ibid
보문
긍지
깔깔
한계선
매서운
모레
##98
저질러
성모병원
브릿지
FDA
원세훈
##상의
초년
##92
발끈
불모
문제삼
자유당
숙취
용의
##anian
사림
뽀뽀
피에르
주치의
괜한
캐디
##76
서툴
쏠린다
##ograp
기어이
소프라노
아자
오랑캐
명맥
주검
하한
제각기
리포터
##치미
벌렸
육식
차분히
와이프
##81
렌트
ootd
대들
오스카
찔렀
##수범
##맥주
부릅
자크
축조
도미니
익스프레스
하염없이
##보증기금
비바람
유사시
은둔
서상
다람쥐
이론가
무턱대
쓰여진
밝혀져
낚싯
서청
##arm
현기증
마왕
뱃살
gl
단일팀
무서워서
BT
바닐라
시호
Off
으루
그리구
##고생
고등교육
뒤엎
##틀리
Op
##38
날아다니
원활히
절절
카누
토르
소방차
면죄
Cal
급상승
##화가
나올지
거늘
저어
##카쿠
GW
선험
악장
선악
##ata
유닛
파라다이스
앉히
뭉친
승수
배고픔
뉘앙스
빗대
월경
1923
구룡
호모
새댁
압승
kW
8500
우버
1908
대학원생
##두고
전주시
꼭꼭
이동식
관중석
지칠
천차
홍영
목수
##네이터
##칠성
엄지손가락
##공격
선선
미제
컨테이너선
돋우
쿠페
터뜨린
##보기
카시
Work
##냉면
지바
눈감
하비
본의
그럴듯
살펴야
##work
풍년
본다고
김정남
전년도
도라지
홍차
자카르타
찻잔
##다이
##연설
##73
##다리기
라가
섭씨
심청
전언
돌려보내
두고
특산품
난동
앞길
바느질
##론자
터트렸
다던
950
원생
깃든
##칼리
굴절
비열
실에
ㆍ외
삼켰
익혔
거리낌
자양
구기
##VE
장막
##리우스
##49
김관용
사돈
은신
선불
식자재
김구라
ㆍ지
합숙
오두막
교동
오래가
맞춰져
가변
##산지
성신
##uch
##부랴
간사인
드립
로버
포장마차
난생
##맥상
도용
응원단
PA
반월
바르트
두고두고
등반
레버리지
진피
그리워하
임성
호환
무턱대고
──
건널
악단
추징금
##먼드
부랴부랴
##패스
##티시
내겐
느껴져
움찔
지하실
송출
직함
도예
이태리
아악
타국
식전
성동구
어서요
그윽
##중일
##백산
피부염
달라서
충성심
선동열
도사리
알아냈
준공식
솔선수범
AFP
시사점
콜럼
##다닐
ISA
##ca
최고점
정갈
꽃게
각축
싱그
처칠
##irst
장밋빛
오명
합니다만
세태
자연주의
난색
기공식
극락
벌판
부기
불경
선녀
진드기
해석학
팔다리
문화사
720
속인
절경
리메이크
편협
우선주
줄다리기
##학생회
이춘
맛없
종착
##문화회관
차우
##다닥
##코비치
억새
통나무
애틀랜타
카바
도읍
최동
액화
제패
걸음걸이
무릇
습니당
충칭
박연차
프리랜
시월
켜졌
민물
볼턴
변태
세종문화회관
KAI
불합
중거리
개포
##시고
##저축
잔해
감식
선망
암각
##소니
닐슨
총학생회
##꼭지
경축
서바이벌
##쩌둥
관리사
만석
##다랗
렉스
우편물
##omeranian
학내
행진곡
노론
##니안
벅찬
자분
중등
쉬웠
저온
혈전
246
일기장
pomeranian
도넛
항균
학생회
문집
배재
묵살
자의식
운동화
지녀
차주
강병
오뚜기
##바라지
보살피
##클레스
IA
희열
마오쩌둥
극성
밀려오
##준혁
##스름
따끈
##사회
스포츠카
로리
모사
목덜미
친수
묵시
##노미
390
어설픈
보청
사르트르
뻔히
플리
휩싸인
참새
##특위
급성
여장
홍석
피해액
##ople
당헌
피시
평화상
의견서
남겨둔
니코
피보험자
차감
기판
외장
간통
AB
오아시스
넘쳤
엽기
농수산
NASA
쟁의
시끄러운
성비
새로움
법원장
보살펴
##유진
씌워
이삭
입혔
새하
##규어
국내선
회계사
투게
페더
양정
주먹밥
요충
내막
여서는
LO
케이트
전체주의
일동
보라색
현주소
무학
교통비
상동
can
벨라
비좁
##스톤
귀걸이
뒷문
한남
##보감
영희
김주성
UEFA
들떠
윤동주
중학
투게더
비꼬
##블러
김성수
NHK
##74
합성어
Cont
칠곡군
두레
##무역
sel
종소리
웅크리
굳혔
발진
이주노
##단다
지켜봐
간청
태후
##에프
금치
들린
##진우
알려야
##자식
##alt
허리띠
태화강
답했
불임
애칭
##LE
부산물
프라이빗
도시바
원희
짤막
캐논
태백산
밝기
조각가
엄연
##렉트
세비
ㆍ박
시큰
Management
교권
벡스코
각양
후판
백범
David
석탑
##res
자위대
중수
3200
상층
재결
고마웠
##ior
##뜨린다
뛰어가
부딪쳐
열병
호스트
주막
LTV
사법연수원
갈라진
굴착
찾아갈
이구
치료사
스탠퍼드
##복지
호주머니
우르르
원비
죽임
##97
파괴력
몽둥이
등부
실학
혁명가
주무관
상류층
천박
3300
임자
곶감
##발력
##52
1922
맨발
경동
박신
와라
##86
고든
웅변
하승
보시
썰렁
서지
유랑
거만
희망퇴직
빚어진
왜구
황영
숭실
은영
##클라
앞머리
토성
##선미
색조
변속기
자폐
포탈
라오
빈손
장실
장서
소지자
순발력
환각
사그라
##39
자판기
레트
Business
등본
방바닥
##호테
공매
머슴
소회
튀기
부드러움
##용지
##망울
근면
셰일
##ㅌㅌ
태동
your
사납
다쳐
휘하
패거리
도미노
버젓이
지령
기조연설
사격장
끼쳐
도형
윤지
항거
면사
##금고
김상현
##uck
선심
벌어들인
돌담
말살
총명
헛된
매개체
달려와
부풀리
현아
##동아
별빛
부질
##넌스
고용부
공실
상담원
순정
##레라
##약청
빼돌린
앙코르
남중국해
1918
요구르트
##부지
##방위
인기몰이
3600
##ough
560
Green
호우
연암
신경증
어버이날
응수
##91
코스타
유종
301
수업료
퀄컴
##instagram
##icy
비거리
##애미
형이상학
마롱
직간접
척척
동장
특별시
생쥐
위증
재규어
성북구
위약금
산다고
분간
광동
제복
나아질
돌격
헤게
고증
이코
등산객
계셔
도안
박창
외도
집념
양평군
##시안
성공회
덜컥
두만
수렁
연지
백마
양기
호실
미일
식약청
구속력
vol
호사
##이조
함부르크
##애플
마이애미
미군정
안젤
660
시끌
##에트
##래스카
전유물
볼펜
에베
##선스
##부대
유의미
##ody
십자군
특수강
레크
산삼
540
쟁반
##나갈
동갑내기
후한
Thom
투자액
OB
형세
프리랜서
자조
가한
동족
살펴봐야
따졌
정량
마술사
해장국
마님
해시
보청기
백발
악법
전우
향긋
cit
부러진
일문
재력
캘리포니아주
have
dogstagram
살벌
##게이
음란물
양식장
강유
초고속
미혼모
필라테스
이맘때
드넓
휘두
푸른색
뒤섞여
간만
라이선스
샴페인
신다는
캐롤
집집
수사학
불러일으킬
페널티킥
콘테스트
격식
대손
협력체
프레스센터
후견
1943
최전방
예단
헤게모니
할게
애경
##그제
##콥터
살아날
시오
##oph
용모
##ju
거버넌스
문답
러블리
동주
조진
에반
은밀히
직물
농경지
할로
서사시
인들
시효
빠듯
브뤼
1921
##mann
어벤져
VOD
##파람
##드래
블럭
##특구
##제한구역
대경
박쥐
으르
##84
궁예
진보당
앞부분
##ㅠㅠㅠㅠㅠㅠㅠㅠ
분홍색
인솔
조인성
시발점
안다는
제설
암각화
레오나르도
올가
출연료
아녀
난도
불붙
걸려서
Korean
시료
##만별
##83
정설
##여왕
자장면
최수
캐서
한답니다
천차만별
경종
의술
##고시
min
서핑
막힐
준용
폭소
개발제한구역
##56
##카메라
되돌리
짓눌
History
불현
조바
유정복
판가름
거림
물러섰
갓난
떨어뜨렸
분수령
거스르
개명
광진구
원나라
스니
휴학
진시황
재야
##cal
ISO
현상학
메시아
컨트리
Ro
로만
일회용
이통
부대시설
만이
밤샘
용액
증산
파면
유생
##공산
도망쳤
광안리
빵빵
마을금고
에디슨
도원
골머리
폭등
##DS
낙찰가
건방
벼룩
부릴
옹진군
선서
안이
고농
새긴
영화인
전지현
처남
참모총장
깜찍
청소년기
적도
빠져나간
채색
예속
대견
##기술센터
몸뚱이
리자
풍족
개회식
sm
고승
독서실
서양인
망가지
하역
##구조
다이렉트
옵티
##민정
가차
레퍼
자평
짐짓
##소시효
면죄부
펑크
이승기
들이받
종파
정략
케리
##조목
##93
고체
억눌
공소시효
몬테
##카이
##농사
##클로
게리
엄밀히
연호
##eph
층간
이조
광선
나성
작심
블라디미르
단시간
방랑
의령
재의
##Hz
한국개발
마이크로
##거래소
##ffee
##진다면
쌍방향
해짐
##urch
주소지
역류
누리집
드라이빙
고사리
은평구
과수원
즐긴
##문예
##uth
녹이
##두근
울상
하이테크
크리스탈
클라라
보사
농업기술센터
##DC
ㆍ장
김근
수재
공연히
한하
POP
나로호
##쿠라
이종걸
연발
대구대
헬리콥터
요점
용암
심히
흑색
오솔
이겨야
날아들
컨셉트
에어백
한낱
##어스
##신보
묶음
시녀
봉황
철거민
치이
##oth
탈루
##황후
##apan
눈덩이
만유
붉은색
아라비아
앙리
##51
케임
##각각
리니지
NFC
논거
무협
진천
도로변
서평
시의
흡연자
##AAD
레비
넘어오
##개혁
전자레인지
지배인
갑작스레
절기
닭발
광주은행
본전
시간표
Ev
결장
진입로
국빈
한낮
도망쳐
께선
정해졌
도인
근저당
담자
만취
232
진두지휘
선거일
꾸러미
재추
사나운
노모
후안
반말
앤서니
풀타임
조찬
잇따랐
일석이조
던전
암석
##분자
천일염
스리랑카
rep
카운티
칠판
travel
상조
애스타
후궁
##ii
##ML
기막힌
분쇄
소추
헤어져
##러울
차후
킬로그램
정진석
밀실
벌거벗
포켓몬
귀금속
누스
걸터
##룽지
가느다란
장판
투항
예멘
시트콤
로구나
신랄
토요타
del
피사
foodporn
김봉
모하
미개
약제
멘탈
다가섰
Market
태반
황희
그리곤
Im
축출
덩이
인품
창조성
유분
##ict
대마도
도르
베라
마그네슘
##정신
카니발
##카이도
각양각색
꿈꾼
삼위
this
##프레소
험악
들키
홀드
##스토이
고쳐야
인도인
송두리
##ross
미지급
급식비
SL
대상지
헷갈리
##른자
한국개발연구원
WTI
자칭
동고
소피아
정읍
써먹
고성군
차창
다를까
역적
일변
##94
박성현
권위자
신사동
##주니어
사회당
시시각각
빈혈
토박이
윤상현
오솔길
속편
불감증
귀순
진경
##pr
Rich
장제
저널리스트
넬슨
인산
3800
나이스
민화
바를
석고
2050
황진
노량진
닥칠
원종
공장장
코스모스
저작권
주전자
타도
홍어
프레드
어긋난
##북면
##유업
조직법
물든
스트리밍
명주
완패
##87
배상금
##호우
속력
앞선다
거느린
Net
저우
##ye
프랭클린
몰수
잔고
불현듯
호로
템포
순리
화엄
THAAD
복역
숙면
생각난다
통일성
해상도
리크
부역
프론
슈퍼주니어
010
미술사
강릉시
칭기즈
무겸
튜닝
교보생명
담아낸
석좌
이케아
라즈
병리
사민
상서
노상
이끼
장생
##데르
오더
입항
따라갈
할래
##타나
##콜리
##tian
오르막
이서
최애
석양
##원회
HA
닉슨
박살
언저리
트래픽
다거나
디제이
박하
이씨
##버둥
Mon
성관
##65
가의
요시다
생산물
바빌
How
빨치산
요강
##우회
들어올리
시그널
##레일리아
서청원
아휴
##MP
##겨워
##곡리
플래너
470
톨스토이
한텐
##마드
나락
안함
Research
거란
현정
봉산
전재
토론자
현지인
괴롭혔
헤아려
광고비
진흥회
현자
##저지
레퍼토리
강태
##성대
대한제국
치수
준비물
윗사람
지현
##가방
취재원
##berg
최명
치달
토했
화학제품
얻어먹
직권상정
별일
##메리카
제회
##미술
고열
내색
리브
삼위일체
상했
어벤져스
현악
충무로
금값
이름난
지피
##선지
대자
해협
부딪혔
신춘문예
양강
교의
토핑
줄기차
빅토르
so
집중호우
공민왕
골몰
쏟아부
장하
문지
숨길
트리오
프로그래머
꼬막
징검
과도기
부경
굶주림
고혈압
이비
소위원회
당락
##소타
아니한다
김두한
손맛
수경
남양유업
김제동
방미
튀겨
앵글
화이
냉기
부어
아닐지
압박감
초입
##bps
정치국
마르크
무참
##내믹
먹히
할매
하오
총독부
배신감
무등산
그로
삼거리
##메드
정순
는지라
후원회
산도
성시
탄다
얼떨
적기
영재교육
다이내믹
둥둥
얼큰
도운
친밀감
조선왕조
싫증
요격
##자키
두드러진다
설리
다각도
거역
괴담
##타고
알아차렸
통신부
채광
어렴풋이
발명품
맞설
번들
##거릴
개강
마모
##테이
##제과
##공화
무방비
대운
발췌
학예
먹구름
장경
##좌왕
리디아
기괴
무인기
우왕좌왕
bet
영결식
레터
미역국
홀몸
##세우스
##eau
Law
YS
얽히
프라하
갑시다
##자산
단신
취사
류승
윈드
고된
투혼
instadaily
Inc
감산
건달
##열차
상대편
미룰
시아버지
우도
##돌프
슬리퍼
소연
##능력
호령
중심축
모바일게임
열혈
옥천
외딴
냐구
데드
리트
소다
교활
발버둥
심술
해로운
##ator
정색
수액
맞춘다
노면
준거
환경청
관능
원은
뱀파이어
파벌
오산시
분교
흥겨운
외워
독일인
꼬리표
##ied
##교차
대연
타계
틴트
작업자
안위
time
##시브
전면전
파인애플
간극
따돌림
감촉
비노
1909
SN
잿빛
##ffect
카네기
당귀
소나타
청량리
성악가
속죄
동그란
##드래곤
번창
온정
옷감
태수
##세계
##저래
따라갔
밝혀냈
바이크
감염자
자결
##부산
카를로스
Bo
속박
동서양
⠀⠀⠀⠀⠀⠀⠀⠀⠀
스페인어
미네소타
석연
북상
아역
유경
중사
서둘러야
천변
설계도
내미
##II
죄의식
ER
괴산
명창
코스트코
섣부
##메인
현종
송시
##레트
견적
서프
백종원
트리트
##심판
이뤄낸
조여
막국수
출금
사각형
##민석
##캐스트
휩싸여
보수주의
주체사상
Good
기나
합법화
순자
Min
잔다
여소
##조심
위용
다간
사칭
컷오프
광양제철
요게
조공
##모리
인도주의
고용주
편안히
불쾌감
뒤돌아보
아만
대조표
대양
몰려오
기지개
냉담
마인
서머
오우
육안
오스트레일리아
석굴
숙부
제곱
느릿
택할
역삼동
갇히
홍역
fe
기혼
백석
체고
황성
골칫
학관
휘파람
크림치즈
수행자
스튜어트
##주머니
알베르
파노
동의서
광구
오재
##63
난사
번졌
훈계
##티나무
가교
투하
야스쿠니
멸시
연개
잠금
캐럴
##거려
##미스
너지
앤더슨
##혀서
병마
1906
체대
팬클럽
루마니아
강림
걸레
Chris
##러워서
저울질
추사
들으니
사바
직진
##ius
노동청
삐걱
냐면은
안종범
빙판
수부
하태
기름진
고의로
우후
ㆍ상
예뻤
포메라
훔쳤
최준
##54
번호판
달아난
배불
영자
잔존
극치
서연
##차별
전기동
식견
자장
전모
리모컨
광택
문방
##폴트
관성
조용필
기지국
망했
##민주당
낙찰자
말다툼
메이트
언론계
God
송중기
로제
##링턴
간수
골대
다구요
##로로
좋아할
읍성
##둘렀
느티나무
다신
##58
달라져
잠재우
찌푸렸
귓가
노역
야겠다
정두언
1912
근거지
러쉬
아전
도가니
톰슨
##긍긍
이한구
James
전전긍긍
##코프
지방채
휩쓸려
왕정
모듬
RF
깨졌
정평
스파르타
##간다는
사과문
포메라니안
기를
닫히
양승태
비기
하중
어려워질
배고픈
홍성흔
##작년
요동치
특허청
대타협
찜질방
석부
베르디
##자동
간대
송나라
솔솔
심연
빙긋
##투합
##티넨
##oung
의기투합
체장
도하
혜안
580
점장
사토
문화방송
대구은행
만수
출범식
둔치
OCI
Pre
경원
브레이
어로
##미트
롯데카드
합쳐서
us
복병
부전
소드
털썩
투표율
바비큐
##ities
순익
케이프
떠다니
홀대
식물원
키운다
##물살
일거리
브리티시
약서
만만찮
급물살
나부
WM
##암리
고사하고
제이슨
징검다리
221
부도덕
러셀
무허가
손대
민낯
##어머니
움직여야
과민
양희
헐리
쏠렸
짭짤
접합
이뤄냈
승부처
##형제
황금빛
ㆍ현
정구
합의서
모모
##걸스
미트
조부
사미
첫선
홈피
TS
거름
니아
수강료
이범호
리거
불가결
길잡이
##포로
##67
요구사항
귀퉁이
국판
궤적
어정
해금
##스트로
눈여겨볼
지켜온
괴롭힘
루크
한남동
##지긋
임했
독일군
에워싸
미자
로페
한길
뛰어올랐
허균
지긋지긋
부종
조바심
슬램
신고자
나일
##모닉
격투기
스가
음대
힐튼
##tim
꾸렸
경험담
베어스
다림
작인
아람
라이더
이롭
파일럿
애당초
어장
음절
이용해
410
트램
맛깔
정봉
중문
##사의
##내린
말뚝
살며시
아부지
##68
장전
지영
벼르
##추세
경계심
원외
이병철
요코하마
##EX
가중치
고아원
큰손
블루스
##ucation
Do
조강
콘도
떠나가
조목조목
관원
에스파
필하모닉
걸터앉
생크림
역자
과수
수취
인피니티
야자
더샵
윤재
체인점
구전
혹평
##선다
취약점
엔드
##워즈
마의
종부
차려입
Camb
학습지
Instit
삼켜
기나긴
##라이즈
PL
익살
##니시
집권당
##어가
국방위원회
##gan
동북아시아
꽃밭
롤링
212
##its
연출자
미끄러져
가창력
샤브
딸린
발주자
강재
나영
리퍼
NSC
##min
위층
특례법
gre
오답
##alue
교황청
포문
종금
쟁탈
채집
##니치
세계유산
PV
뒤로
푸코
Che
기특
##모자
이주영
흘러내렸
실추
제원
나쁠
막연히
뱃길
지민
##ship
##ren
견인차
틀어막
9900
송곳
오물
대출자
유니온
역전패
빛내
뽑히
되새겨
틈타
히스테
부귀
플렉스
서가
경외
저걸
가르친다
황인
들썩이
끊긴
블러
유혈
##yl
##rip
저금
가라앉히
구대
글루
독백
투지
결의문
교육법
내비치
##샤브
나고
FRB
다빈
히브리
빗방울
족보
ㆍ경제
방공
한단다
을래
정청
##플랜
211
기름기
##우뚱
경솔
산실
카톨릭
풀밭
알로에
반바지
핍박
심리전
팝콘
형부
손쉬
인칭
합헌
안녕히
이슬람교
Art
스텐
다움
삼림
경포
안내판
왔으니
주안점
ㆍ주
수잔
어유
##ru
부단히
반목
성인병
사문
심의위
Review
요람
델타
한대
부국
##62
집어들
최고가
만화책
굳어지
테너
주경
미들
재빠르
침식
한국식
모국어
후천
매표
목공
##61
##약자
요충지
가브리
연설문
휴게실
Development
Rec
불똥
을지라도
모나코
임마
##저만
##eauty
갈랐
기부자
근황
참작
해서라도
추천서
파프리카
도농
담근
문안
##히로
돌아볼
우르
수증기
판별
빼앗겼
소피
혼전
봉제
환대
일용직
무적
지랄
은어
민혁
워런
저수
##53
##oft
디엠
왕가
감출
신학교
윗부분
공예품
##사이드
##신기
유목민
축협
홍합
대한상의
뛴다
찬미
뛰어드
경총
산중
##방아
명암
책봉
##ㅜㅜㅜㅜ
신승
금메달리스트
##라드
둘러본
요것
RP
직사
덕담
##스윙
으니깐
대머리
조소
공소장
유품
해준
가져온다
수화
##소설
##ield
배회
주황
1904
거제시
에스티
식음료
가속도
트레인
##els
바꿔서
최문순
낭송
##령관
꿈속
도치
폐광
격언
구보
건조기
DI
길들이
문지르
근거리
복통
이만저만
왕십리
스콜
진단서
등기부
설상가
오즈
이상득
부화
장화
BIS
든다는
##쿼터스
Id
##애애
끌어올려
설상가상
확성기
##상각
에어부산
Science
스즈키
뒷바라지
##박자
가오
추심
살라
흉악
APEC
sub
번트
현충원
불끈
신석
최희섭
뉴저지
따끔
자아낸다
플래카드
아재
연거
##츠키
밀레니엄
최일
특공대
가가
GP
##다녀
붐비
전환기
두만강
존치
##57
유비쿼터스
배변
자욱
##번스
불합격
루니
놔야
답습
그람
연가
피운
Mus
다이얼
샤브샤브
숨긴
판화
석류
루나
플롯
행복감
파고드
실탄
##장난
수리비
애국가
급행
##시아드
214
이뤄지기
XX
해동
트레이딩
헛소리
과식
후세인
구라
##티모어
최고령
고난도
리원
체스
팻말
유니버시아드
LCC
편백
##통신
이어주
족히
되도록
범한
역효과
도상
상궁
곤두박질
맞장구
금하
흩어진
나무라
시켰으며
병무
칠월
서린
헐떡
찾아와서
긍까
바벨
안영
##기획
루스벨트
노이
삿포로
들여오
노른자
이뤄지면
세출
송지
##슐리
숙식
ARS
##불교
만을
상징물
파나마
그러니깐
두텁
보통주
까마득
모어
총통
애애
지겹
어플
##스트럭
집사람
술병
창세기
알아본
소영
패셔
구문
떨구
Class
취합
탱탱
팔달
찾아뵙
야구단
친문
##맥스
소산
쿠팡
가려움
월화드라마
김강
대적
십일
수목드라마
본업
출점
오릭스
##어음
##말리아
독설
극작가
설파
##ien
피셔
##용석
##무대
과학관
갸우뚱
벅차
##be
##혈관
##체육회
사선
어질
핸디
암초
장상
해조류
수족관
였었
상대국
꼬이
##방망이
나빴
호들
##eek
박미
htm
청동기
뒷걸음질
돌린다
재팬
Ma
스트라이커
타르트
##오래
##변이
예금자
Die
셔요
쉬울
불러야
좋아해
샤를
항고
의장단
수석대표
경락
만도
상무부
김하늘
한국학
시급히
방기
오행
1895
Tel
파수
백남준
향응
오도
알펜
귀양
기른
마이어
RC
난쟁이
관찰자
빨대
서툰
슈가
##냅니다
알아채
프레이
페니
손아귀
호미
좌절감
당규
목상
병신
세네
시현
주몽
박진영
리부
막사
본디
##64
##절미
향서
##아찌
ㆍ하
기단
논현동
도금
독립군
갖은
신해
##소싱
도전자
수갑
척박
업장
자유형
잘라서
테헤
감춘
##줘야
##스테이
##ection
Fin
계략
애드
마지못해
노릴
볼티모어
승합
월마트
##포스
아태
##iter
허겁
변조
줄리아
##뛰기
감가상각
작아지
##비엔
결탁
설악
쌍꺼풀
이찬
맞불
어긴
어플리케이션
다인
슬며시
협곡
와사
쿨링
개종
신창
육즙
사무직
미대
알록
오갈
출두
222
세난
엠마
##나연
빌릴
늘어진
송유
프리킥
동작구
아웃소싱
Dr
격하
발치
임해
독차
승부차기
JS
미행
예물
방풍
##ury
청구서
덕수궁
올지
조중동
적색
끓어
나침
##데자
폭발물
푸조
논제
쌀값
장량
최루
##omen
##데자네이
대영
1894
돌연변이
Ox
휴머니즘
축구단
##킨슨
드라마틱
검소
교신
##보스
소비에트
실력자
오묘
추돌
상실감
MMOR
알래스카
테헤란
##대왕
아웃렛
hom
목화
장주
##올리
화기애애
Bro
남작
좌장
넘친다
섭렵
승전
혹자
##ological
호들갑
우익수
교보문고
고여
고명
##바오
살아났
전함
태양열
##학파
혜원
MMORPG
##투어
살아난
승강장
어루만지
##은땀
##ington
부감
익힐
일개
알콜
허상
호러
불러도
더비
자료집
로그인
식은땀
피폐
보름달
##스트럭처
누런
그리스인
강과
유별
다녀갔
ㆍ경
오래오래
1911
##워스
##래기
Li
TEST
노여
단념
어울렸
행자부
##부절
연합뉴스
당무
ev
낙폭
매운탕
빼먹
날아갈
정보국
떠내려
보호관
##추세츠
Reg
임지
신비주의
옥수
중환자실
허황
분립
앉혀
##지겁
정부안
센카쿠
따님
앙금
한가위
Love
##히트
##ruct
세끼
##HA
물산
증감
##글리
후반전
셀러
재우
연주가
우대금리
허겁지겁
서론
유림
장진
참나무
조각상
손쉬운
타박
단호히
무난히
해골
변종
그럴수록
차돌
크나
##작전
금화
연매
보온성
##혜영
매사추세츠
system
수속
하객
##버릇
놀림
베이비붐
##트라이트
장동건
붕대
회심
강영
##vern
까칠
너라
##치료
거려
전현
미술가
파헤쳐
노아
상념
인스
외식업
온누리
손잡고
픽션
둘러앉
마스터플랜
탕평
달서
칼빈
휘말리
##rateg
##감사
박석민
##데자네이루
##도그
##반구
고시원
리우데자네이루
코웨이
##RC
감정가
용문
##라이어티
##절부절
인프라스트럭처
##모더니즘
바이저
눈치채
변두리
전해진
어휴
잡티
도취
안절부절
뽀로로
상아
##리니스트
##헌영
부락
pre
퉁명
##엔지니어
ㆍ비
전야
바이올리니스트
학제
로테이션
미뤘
피에
밀려났
버라이어티
호명
이겨낼
변별력
비상사태
UV
데니스
잉여금
여지없이
백과사전
City
WP
시퍼
구획
빌렸
차로
##네트
##새끼
샐러리맨
Service
##rop
감정평가
교관
드나드
심호흡
가속기
동대문구
블랑
버려서
서려
통닭
##에서
소임
신파
허준
##장고
소개팅
남이
총탄
수두룩
성행위
됐으니
##나르
##에너지
음악인
전월세
##엔지니어링
까르
야시장
왕관
장유
##예진
##로웠
중론
김진태
조지아
재청
클라크
걸프
미각
이항
KC
너도
##인수
도시민
활기차
금과
황보
대표부
쏠려
투철
대리운전
수포
매수인
곱씹
우미
올레드
담판
좌회전
흉노
##게트
끌어올린
##히드
독차지
동그라
운전대
두꺼비
만무
실랑이
아린
FOMC
Cambridge
생육
원주시
BG
영생
바닷속
플루토
흐린
##선언
올림피아
하얀색
젖소
진취
망설였
바티칸
부주석
법전
송혜
영접
##라이터
청천
펄쩍
의정서
답례
뒤이
힐스
배당주
고학년
피처
하품
클러치
인더스
##디푸스
젖히
밀란
일단락
다이나
꿀꺽
청색
##성동
때우
UCC
사가
미끄럼
팔월
오이디푸스
##포도
공갈
바로크
중간고사
피노
굴지
진땀
대가리
탄원서
크나큰
혼혈
##59
마구잡이
##파티
곤욕
포스트모더니즘
캐서린
후각
##지근
##도사
하이드
겨레
관아
의연
구단주
유학자
라는데
시커먼
모함
코피
관리원
화내
연거푸
갈기
창안
##bert
붉히
정렬
##신라
원목
토건
언서
환갑
##riv
체인지업
현영
밀림
실소
여섯째
순국
640
##달록
구조주의
우상호
추악
임신부
##ubl
알록달록
디디
황색
임대인
가로챈
웃긴
격정
천왕
채워져
누룽지
뚫려
단전
전열
불응
엄습
연습생
밑바탕
진원지
펄럭
나빠졌
고학
의경
헤비
쓰라
213
발원
정각
관악구
OO
기네스
숙고
윤창
테오
폐회
부차
홍정
##평동
정론
##69
겸한
여태껏
녹십자
서기관
대비책
맑스
처마
평야
##장이
##에른
받치
야크
본론
채굴
##저러
파스텔
순직
고인돌
수니
애쓴
컬럼비아
라벤
버클리
Assoc
퍼진
출연금
노심
항공권
장학사
TOP
문병
성찬
에밀
웨스턴
말단
심해졌
는걸
##멘스
들통
수산업
##섬유
줘야지
개학
미포
씹히
경의선
돼온
지론
청국장
도살
치도
##ave
##hys
자못
씌우
으응
거북선
ㆍ조
자넨
덕성
진군
스타인
봄꽃
대한체육회
모델링
재정난
기러기
측정기
강탈
고기압
노약자
윗선
붙여서
ㆍ구
##ko
##처치
센서스
다방면
love
십이
Paris
해전
##ral
##계산
체납자
황새
##urg
신진대사
증강현실
조깅
줄여서
허정무
무임
저층
보배
비일비
##나도
경찰대
베이직
비일비재
번뜩
부마
맺힌
자른
향신
미동
브릭스
알람
우레
장한
야전
전곡
지산
직경
김태희
내리막길
김응
##line
끄집어내
나스닥
칭다오
과밀
목살
방부
4800
##스토크
재작년
##크로
근소
유임
군기
트친
##개토
아십니까
압둘
농사일
아파하
한신
예지
물러날
했으면
광개토
말랑
비닐봉
##리지
표준어
신라호텔
##개골
찍히
Report
휘날리
Cap
아씨
모로코
역관
콜럼버스
일격
겁먹
대혁명
펴내
##ane
면허증
##불퉁
##퉁불퉁
뇌혈관
혹여
##워프
고동
베이스볼
재추진
##TT
비합
싸여
회당
정녕
촉감
흘러들
실익
영속
생산직
노랫말
Cons
울퉁불퉁
떨어뜨려
막창
분발
읽힌다
면직
명언
브래드
뒤집어쓰
Day
비통
상암동
애로
처할
UF
비스트
야영
자투리
최지
##amil
Act
인어
환멸
##each
두근두근
박세리
군국
유미
##출혈
218
마티스
쳐도
도량
나아졌
EPL
여행기
편집국장
덜미
백자
##장어
##감각
##콘서트
학당
##트니
히스테리
거린다
계십니까
냉랭
총성
시험대
치우치
씩씩
불경기
윤주
가비
애처
민변
목련
흘러갔
상속인
범벅
온다면
광역자치단체
알펜시아
지침서
거시경제
DA
보국
KIS
샤인
##동물
통신업
나지막
발기인
풍겨
고음
빈센트
염분
천시
##슬기
스타크
소말리아
어머나
황룡
시에
하토
##RE
쓸데없이
인멸
반대파
동의보감
##치우
연대기
ㅤㅤ
경운
서킷
수북
주세
특질
바게트
##노위
술술
장석
행주
9500
네온
어슬
전초
착실
해충
##츠하이머
통조림
입법부
안타까웠
맹주
##타페
노동법
##터면
라디오스타
뭘까요
하마터면
가르시아
꿈틀거리
##축구협회
격동
노정
뒷부분
우롱
퓨어
정철
##왕산
동승
벌컥
이지만
##각층
겨루기
성안
집게
알츠하이머
도통
로저스
##등기
연산군
단열
페퍼
각계각층
에볼라
기암
선결
해운대구
mar
가지런히
일침
오른팔
송혜교
꼿꼿
굉음
줄인다
이창호
시온
하정우
대한축구협회
나침반
근린공원
동그라미
분절
우열
해병
선택지
아웅
쉬우
570
표하
imp
골재
사인회
들춰
수채
##day
프로덕션
달여
신바람
마침표
논밭
회선
##ony
파노라마
Psych
##ration
선곡
##지막
##케이드
주방장
뼈아픈
박순
직분
##기운
농법
##시네마
메운
##장각
원거리
##고추
몸체
이래저래
사로잡힌
his
will
벙어리
으으
쳐야
감탄사
스포트라이트
문중
아운
##치락
휘둘리
분란
타원
품평
중견수
염치
추문
호리
소형주
OPEC
삭발
##가분
아쉬워
##쇼핑
유식
##잘것
##orm
오스만
NIE
이부
맛본
홍순
결전
남달
알맹이
돌려서
끼우
업로드
크리스토퍼
그란
우성
##운영
착잡
##aum
어떻든
머릿결
##공화국
큰소리
구해야
사포
##냉장고
바지락
소림
창덕
피난처
소포
여비
전근대
##ㅋㅋㅋㅋㅋㅋ
가감
영해
Win
상보
금할
저고리
김효주
유례없
수처
차일
##네즈
공산품
von
##박사
보내온
다비
롯데시네마
눈뜨
지류
##독부
##당선
박희태
윤진
단오
화주
기본기
부담없이
입출금
##비엔날레
일광
기프트
분원
##음사
유명무실
쏘아
남상
출몰
급작
기전
전멸
빅스
물어뜯
필러
나고야
호치
##꾸러기
트윈스
맹점
재범
호찌
드레싱
쳐다봤
기울인
##브리지
혼재
상담소
자괴
##지마
지나쳤
교착
슬러
가르쳐야
끌어당기
감방
전편
##장성
맞잡
금호산업
주정차
선덕여왕
##종합
원희룡
수라
쓴다고
임진강
화정
물러설
디폴트
화들
생활고
마셔야
##ible
##다닌다
전병헌
알갱이
우릴
제제
##노프
광주비엔날레
마주친
민음사
뮤지엄
칼럼니스트
NBC
To
쭈꾸미
화들짝
키위
크리스천
대야
버스터
철쭉
프로토
가려내
쇠락
오간
김유신
샤오미
김건
봉수
##카페
##아산
물통
게임기
최나연
##기록
아벨
여명
격한
안달
애슐리
핀잔
그니
이기심
가망
떡국
시라
에바
에스프레소
구로구
비스듬히
당산
217
은희
##메이트
전세가
붙잡혀
리언
폴로
평균치
냐고요
Fri
골동
뚫리
시부모
노승
아성
증거인
수소문
##택동
열등감
찻집
##계선
교무
소방본부
담아냈
겠다고
붓다
지게
회신
Society
짜장
오거
안타까워
착용감
테러리즘
기민
오장
핫도그
순교자
물레
instag
갈렸
산둥
영양사
김보경
벌크선
dieter
픽업
##보도
막부
일흔
##붙였
스트레이트
비웠
호텔신라
올바로
충신
철없
재배치
워커힐
천민
몰아쉬
건장
전석
병변
는다며
227
바그너
국조
나폴리
새까
저속
총국
섀도우
모둠
##포구
필적
##용준
서장훈
식후
경남대
동수
유찰
처가
아이슬
깨알
비린내
테리
##승원
##티넨탈
Bu
##습니까
빠져나왔
##국사
럭키
마수
언약
염색체
예뻐서
괴상
뷰스타
갖춰진
에스파냐
가주
##교회
이용규
##wo
보일지
Human
관서
디플레이션
눈여겨보
감원
나쁨
류중일
방배
빙글
낭자
돈가스
부심
머스크
신일
맥아더
car
늘린다
논할
살필
서유
##카운
이해도
로마인
공금
독학
랭크
살려야
세도
손꼽힌다
와사비
##미사
지참
강지
맞받
오열
##ading
부서장
최상급
특종
식상
위니
##icht
색소폰
TC
꽃가루
숨겼
##그려
구연
난소
##OA
남향
사이먼
foodie
Tim
곰돌이
디너
안전교육
순환도로
처단
동감
모기업
부총
살인자
자위권
설경
속했
전통주
통속
##EZ
시험지
stud
##ㅠㅠㅠ
네이션
평탄
아차
초식
신구
설욕
##분석
일변도
한화건설
탱고
##엉이
##노래
지적도
건너갔
##타인데이
간이
아이슬란드
뚝심
불행히
1913
종국
China
방석
야무지
외지인
평신
판매원
붙인다
철탑
격분
상주시
MWC
감나무
약효
바바
##돈나
안내서
기독교인
life
선데이
감찰관
키움증권
경장
고베
리먼
상암
김연경
혼탁
해집니다
로밍
김종필
송수
건축사
630
상장지수
깨어났
Mnet
되뇌
된답니다
입비
할인율
다빈치
배급사
엔가
커넥
##꾸라지
소탕
굳어졌
팟캐스트
매회
재조사
들여다볼
줄리엣
박범
추어
서스
심취
1890
하기야
컵라면
알려준
출하량
판권
비엔나
일주일
되레
수매
지쳤
##빠진
지배했
현진
##양이
덮친
사투
친근감
런닝맨
로고스
걸으면서
##건조
시킨다고
명예퇴직
조력자
보험자
출연자
##ular
싼타페
##랑스
마그
밥솥
에덴
이글스
로렌
알카
지렁이
황선
치러질
광풍
래도
재투자
##슬로
그어
담벼락
양육비
유소연
판자
쿠롱
##사귀
끝마
불협
해맑
라스트
빈정
유현
잖습니까
태음
한사
##평생
데려왔
김경문
##잘것없
클수록
어처구니없
노안
와이즈
쏘아보
##사정
달한
로드리
작중
탑승객
친위
최시
instagood
니퍼트
재미난
##채권
잡아당기
성조
혼내
검정고시
##ring
기말고사
식장
자오
호구
월별
국행
산더미
세면
편할
포만
ㆍ가
지평선
라돈
갈라져
ㆍ의
위령
쿠르드
풋풋
경남기업
지그시
대통
투옥
화덕
##옵션
사망률
쾌활
나가사키
신문지
율동
입회
중심가
대합
##ures
##업체
프라이머리
blog
권투
방방
판매액
je
검술
금욕
능통
지배층
정우성
##시위
어항
단행본
잎사귀
따온
주현
해맞이
혁신안
Don
가스공사
##사위
commun
괴한
술탄
청혼
안배
동방신기
노랗
혜주
김동연
광둥
규슈
당구
끌려갔
굴러가
메기
웨일
전사자
혈안
##데오
조양호
face
장미꽃
KR
한수
사귄
장녀
롯데제과
외파
##kin
데이브
번뇌
숙녀
으십니까
철조
하워드
무한히
제독
이용한
Center
성빈
어종
초토
야구팬
거북이
덜덜
Mich
송편
##러우
하이힐
어가
허세
3400
저당권
깨워
앙드레
진과
증류
무화과
잠적
##손실
참고서
뒤처지
##사채
사진가
롬니
승상
ㆍ영
캐스트
한다든가
지열
공문서
##중근
고속화
되살려
SAT
홀가분
범퍼
조광래
갈구
다도
1896
눌려
대흥
다이노스
진호
화창
부총재
거문고
조석
##ode
끝자락
조선조
롯데케미칼
모자이크
패티
필링
해학
##ㆍ이
되묻
회오리
서프라이즈
정훈
허드
강화군
Wil
지탄
상납
톈진
1898
살찌
휘둥
마르코
식재
족쇄
바이에른
문하
정공
까요
##짜고
공공연히
뒷날
결투
다짜고
다짜고짜
미망
사별
샌들
빨개
포천시
무정
계상
듀스
레아
사익
잠입
페라
##팬지
머리말
김치냉장고
시그마
칼리지
##버니
##짓기
지렛
왼편
참견
AA
권능
기폭
사실주의
1899
일억
장항
건다
산발
전갈
그치만
GN
던스
수익자
보수당
구슬땀
봤었
양고기
자음
##erc
기출문제
어정쩡
book
이베이
추앙
##화음
아이언맨
Em
화환
##식당
브룩
회장단
왕립
관람료
##소닉
신분당선
부딪쳤
Christ
어학원
면발
쫓겨난
앞면
차두리
##린트
##칩니다
힌두교
못내
물으니
옷가지
장준
봄바람
호시
자포
중엽
피부색
출판물
##카운트
지렛대
용해
나선다는
소매점
최규
예비역
성탄절
내음
시미
찢어진
피크닉
##수아비
프러
224
쿡스
소사이어티
겉보기
학식
허수아비
경주마
침체기
##은경
510
넥스트
##리니
풍산
##ao
반가워
사오
합세
부닥
속히
스탬
스킨십
토털
이해력
튀어나왔
농원
콩고
이용섭
전성시대
기압
침팬지
등록세
신뢰감
고깃집
삭막
##레미
스웨터
잡곡
십이월
##통행
폭격기
김천시
적조
주걱
타우
앵무새
환관
##갓집
직업훈련
238
소매업
스트라이프
총책
티볼
명문화
680
신학기
한옥마을
포브스
##음식
조리법
##그러들
극진
##실베이
더블유
한약재
백합
##실베이니아
불입
소린
세무사
만든다고
산수유
Asia
다라
##무쌍
작목
잠옷
##결제
박주선
QM
목마
조나
하임
Top
계모
구한다
##연수
계몽주의
국인
선승
땡기
자두
넓힐
큼지막
##두기
담겨져
후광
##제비
##체육진흥
Mart
ㆍ무
김충
반딧
벌칙
콜라보레이션
소공동
사이비
##변속기
따듯
웅덩이
처용
현세
255
방책
연령층
234
마음씨
231
남긴다
POS
cy
억양
맛봤
발품
어찌하
생색
열성
미친다는
예배당
손아섭
벌린
폭침
주어져
펜실베이니아
늑장
##ael
1915
생맥주
총애
버드나무
기립
빅리그
친히
투정
리얼미터
##혜원
##이다
##노선
##셔닝
꺼진
장황
더덕
네임
꼭두
되돌아오
잘랐
콤팩트
바우처
송광
타악
##컷뉴스
노컷뉴스
달째
층위
이승우
꾸며진
천문대
포지셔닝
점치
##캠프
아이리스
김영환
보로
264
한가득
힐끗
황재균
웅웅
한국가스
##총독부
산업재
메마른
그름
국민체육진흥
가을철
적응력
##일기
##토르
공심
병폐
수의사
축산업
혜진
##OU
너구리
단자
아낄
med
##동맥
##전입
김수영
여든
거슬리
강남스타일
향신료
Dem
방폐
피서객
Thomas
304
다수당
Power
샌더스
원양
금남
교수진
지방대
올라선
합심
223
Time
실연
##서울
좌익수
표고버섯
라식
여제
마르셀
빙빙
보여진다
공책
원탁
유빈
천부
치러졌
늘어져
육사
퇴각
꿈꾼다
따분
파사
드리블
기품
비수
사만
성씨
정근우
뒷골목
창조주
##사건
출중
조선총독부
걸으면
실거
조니
정형외과
니즘
수렵
Can
려구요
뒤떨
마호
코끝
위장전입
독대
ㆍ사회
Cre
MT
흩어졌
지레
쭉쭉
낚아
대웅전
움직인
항공모
따가운
옐로
완고
꺼낼
탄약
Organ
폴더
하토야마
대했
스팟
외채
생방송
브라운관
비뚤
장롱
모택동
보육원
CSR
드워프
중턱
청신호
려고요
발사대
비쳤
양귀
지킨다
항시
해칠
##ember
재계약
대축제
유황
백승
243
가까울
체육공원
민가
헤어질
보양
심대
총경
쏟아진
권영진
애벌레
공공재
들어올렸
냅니다
배기가스
장신구
Sim
향교
전반전
최단
햄릿
불러온
오로라
뇌물죄
방카
비집
중과
새빨
투석
하동군
가브리엘
훈제
What
들어줄
위문
수면제
미네르바
김의
마귀
지나온
명량
##무스
기현
기척
설렁
옵티머스
땀방울
초딩
##교섭
안정세
일교차
폴리에
나태
짜내
새하얀
실비
임동
어떨지
휩싸이
수작업
미니스
으셨어요
미카
연근
한해서
밝혀질
UR
프라이팬
골잡이
방전
폭풍우
##비안
die
219
거뜬
회도
인증서
근성
동진
##얼빈
760
Oxford
감흥
스키니
감점
맹수
레인보
멍한
망한
배서
##성어
##천후
델리
머드
##서비스
어획량
보증서
도매상
244
##앓이
ㆍ동
홍종
##클랜드
불가사의
크리에이터
##리에이션
##ledge
행실
인민공화국
알라딘
독후
순박
유나
나왔었
상술
부대찌개
데이빗
불기소
정홍
유니클로
놀랬
동정심
##테르부르크
깨져
발소리
청과
효모
##문학
299
Mo
망언
크리스털
##iron
통영시
상수원
망토
김이
PI
물소리
조련
김혜수
공분
화난
USA
사무엘
드신
유아기
내홍
대유
방호
253
밀어주
격앙
김흥
웅성
윈터
군관
도회
빚어졌
주종
세계무역
지성사
불협화음
뜨끈
베드로
여아
##기수
정치력
유유히
EM
달랬
미납
개선책
도이치
바젤
이카
##사이클
QR
액상
심포니
위나라
간밤
제전
해밀
##예프
옮겨야
아니면은
마닐라
무정부
제시카
##rib
내야수
틈새시장
영빈
하얼빈
해안선
파나소닉
어귀
황무지
##에이징
전골
가마솥
금관
안티에이징
합일
##키호테
##ago
양일
영종도
브라우저
할라
##국제
둘러볼
자괴감
돈키호테
비늘
심이
조모
지구력
상견
맥박
반나절
일족
강해졌
중형차
무안타
하시
윤활유
선재
퇴근길
쓴맛
She
구불
끙끙
##hip
##도장
둥그
우완
졸업장
성진
265
티아라
복근
하키
김병현
라디
서안
킴벌리
490
샤이니
알칼리
친서
##갯짓
소강
못된
##OL
##천하
추스르
수신자
빠를
233
앤드루
열대야
korea
침울
세탁소
ON
##ilm
신동엽
케임브리지
격변
##공간
강준
무디스
절전
매트릭스
마스카
벌집
웨이터
부메
뺏기
##대포
##갈색
부대원
꿈꿨
부린
세모
절임
조던
구용
절망감
귀담
대궐
기초자치단체
명세서
뇌출혈
텀블러
계집애
들른
예술품
총감독
최남
토드
함장
도외
##사인
비상시
마더
진기
청국
마고
격전지
ESP
검지
법당
왕릉
포도당
귓속
##경궁
놀라웠
광야
전횡
SPA
한민
아랫사람
냉연
이와
밤늦
나와도
뚝배기
242
신라면
면사무소
모티프
관자
덤핑
원제
우거진
유어
지방비
군량
퇴비
##bl
잊어버렸
환송
변화구
승합차
재래식
배영
##uf
상차림
안시
흠칫
리프팅
사공
최치
유행어
이도
나타났으며
식용유
오싹
품성
##퍼레이션
걸음마
로미
중처
##랑드
오창
형질
낙오
외동
소구
ㆍ자
네에
##🏻🏻
프라이드
담뱃값
ㆍ강
자바
베버
천태
카이로
넉넉히
해부학
ㆍ개
옐로우
완파
생활상
응급처치
곰탕
빌려서
귀여움
유조선
조광조
Richard
스펀
불안해하
JYP
피나
인데다
반일
옥죄
##연시
인형극
레크리에이션
남강
발찌
유권
메세지
목전
부자연
해진다는
대첩
뒤척
족장
솟아오르
덤벼들
스필
##보트
체포영장
메라
명화
바트
##죽순
둘러봤
급사
브로드웨이
reg
면목
교우
유언비어
북송
노스페이스
헤집
##네임
드러누
한화케미칼
송시열
미정
치맥
테드
##압감
페인팅
페르난
cons
영사관
결백
이반
진아
컨대
기관차
만발
아구
잦아들
메세
제프리
차릴
삼청동
신수
평택항
BIFF
사심
엄하
해양경찰
악령
자란다
순두부
##태현
특별상
의료인
우후죽순
시달려
셨으니
가져간
트렌치
끄떡
시보
직능
레이팅
행차
날아왔
역정
sec
서울특별
그레고리
다녀올
풍문
연말연시
##oney
꿀벌
범법
운문
귀요
수행원
점자
성교
우에
3700
THE
임할
발아
송재
떠올린다
건당
문파
커다랗
침상
대장군
780
스무디
하지원
##일답
내려올
떠드
##꽂이
##씀이
나이프
모인다
평의회
송강호
하승진
씀씀이
##ham
ppm
원유철
가를
준법
추려
##숙고
일문일답
초이스
브로콜리
##urt
●●
상존
통솔
든다고
웰컴
반원
불미
심사숙고
어지럼
부메랑
명복
월터
내몰리
Air
여린
##봅니다
가계부
교총
박남
카사
##니지
Bank
멈칫
##대표제
아킬레스
면장
철조망
기가
동두천시
손승
##ability
구국
285
섣부른
베르크
탁상
쑤셔
태양계
종과
양용은
피닉스
알아낼
틀어박
백기
세원
1588
통칭
229
도스토
글램
브루스
유흥업소
깨어난
짱짱
부르르
약했
조마
느니다
잉어
알렉산드리아
아물
산자
우스갯
Bas
도쿠
소국
안드레아
산유국
뚫어지
라파엘
광어
대뇌
목도
슬립
형주
인사이드
PT
간척
법치주의
알카에다
요식
주자학
껄껄
보신
찾아간다
한국가스공사
과소평가
충치
안무가
제사장
졌으나
터빈
심심찮
yum
가금
비에스
양팔
서스펜
흥얼
이재민
어젠
징병
천방
##EF
##가을
aT
무가
서빙
여심
타미
고속철도
목판
아다
health
##당당
매니아
들여온
Te
앞산
창덕궁
만반
수평선
Dec
널찍
스파이더맨
띤다
태교
해치우
해지지
금광
난타
전미
know
식히
입맞춤
태초
게으른
마네
퍼뜨리
황석
손끝
소희
주량
뛰쳐나
엥겔
압구정동
도랑
방자
어의
에이치
오드리
333
##드리히
School
본분
철강재
김관진
빨라졌
날릴
디딜
편했
254
철도망
고소장
야성
##수술
바자회
col
늦출
252
항공모함
재소
줘라
##연금
가렸
속아
네이비
난징
피한
이중섭
대각
두개골
봉중근
옛말
##IL
비잔
껄끄
성결
마돈나
수육
한마음
쓰러질
발육
터뜨려
매연
휠라
도메인
로렌스
식비
수도사
구릉
삼화
불모지
EG
PH
대백
쌀밥
자생력
장아찌
편치
##viron
Japan
##펜하
##IB
다는데요
추웠
운동회
운동량
정우택
배출권
데려와
Europe
피클
희소성
논설위원
상견례
나으리
총무원
낙담
독살
품절
귀감
띄웠
피울
##orge
정례회
역모
산사
기댄
등원
사간
이왕이면
윤아
완비
헌터
끊어진
해져야
가단
일직
타이탄
삼정
건축비
무거웠
김황
##냉키
무함
좌중
데려갔
온난화
혹한
브러시
도핑
돈다
새파
혼합형
일심
감싼
수미
천적
굶주린
고초
맏형
##노자
239
치러진다
자금력
##스토리
걸스
마부
족부
최철
ins
구세주
으스
288
쏟아진다
Adv
비니
싱크대
곁들인
넘어졌
버냉키
##부아르
가련
그리스어
그친다
걱정거리
이종석
씁니다
옆방
피폭
타이완
해인사
겹겹
드롭
내줄
부서진
고쳤
정이
영의정
##탄올
라자
Christian
검경
이복
존경심
말끝
불시
여생
조민
##합성
##OT
325
눈꽃
우림
아쉬워했
식민주의
고분군
면할
화근
치켜들
깔리
녹두
투싼
##EV
예순
화강
적외선
정변
불량자
##산소
리차
물회
엘시티
내연
경기도지사
존엄성
받아들여졌
여군
##피자
##○○
만국
##렴치
236
파라오
산세
전투력
왜관
산채
##로프
##계리
##충전
경산시
골칫거리
래리
이택
고지혈증
위스
엿보인다
차우찬
경내
촉박
##화원
굽혀
국방위
집어던
당혹감
원지
파렴치
산파
피란
예대
메리트
주미
수비진
녹아들
청학
야대
##보험공사
공효진
저스틴
데려온
유감없이
개당
구주
이군
미지근
무속
볼멘
힘줄
끊겨
대물림
사온
##바키아
자연사
Frank
중풍
##오피스
##느릿
Red
개구
퀘스트
강모
메이플
사르코지
이가
태웠
스타워즈
움푹
##ki
몰골
인즉
종량
고무줄
독사
정남
##유키
개인기
되돌릴
밀려들
지새
파스칼
김여정
보잘것없
빙자
포교
촌장
예방법
객사
은상
타의
포워드
박명수
글썽
떨려
캐머
타리
상륙작전
약소
영회
##장자
한다니
##etter
배설물
낙양
전영
정범
번가
249
과음
은연
비틀즈
와일드카드
선미
옥중
##EAN
숨져
회원권
반가웠
국론
놀려
레인지
브렌트
훈련소
레이첼
지어야
흥부
980
메소
명종
선단
특활
얼룩진
이호준
아첨
중개업자
##ense
4200
을사
다녀간
노천
어야죠
불가리아
인장
통근
달마
유체
참선
함흥
포장지
장바구니
중앙선관위
##은혜
영문학
묘비
남한강
양명
가정부
연금술
내복
데미
마교
비비드
##tice
247
일정액
기울인다
속상하
물어본
두근거리
젠틀
충청남도
간호학
특별회계
##itz
원액
##alys
마스카라
##슬레이
관광버스
날아온
골동품
모라
준위
초판
전군
토미
##델라
ㆍ청
소지품
나진
노보
두둑
역발
출정식
우스갯소리
들깨
돌려보냈
지상주의
##action
##해졌
##금니
부사관
플레이트
생산품
깐깐
부릅니다
세가
소기업
악행
복음서
남문
형형
구급대
비굴
조물
돌려야
620
오뎅
피케
어린이날
##oman
내보이
ING
남하
송년회
##메이드
판매장
기다란
천수
##안간
러시아인
엑스코
옷깃
제아
성형수술
##야구위원회
##디트
한국야구위원회
##스코트
데뷔작
Technology
##oe
리더스
United
가재
꾸밀
실까요
생겨난다
벌여왔
시냇
273
지명자
UFC
별안간
##양양
공신력
양재동
초속
처방전
고행
라트
비너스
유대감
다원주의
드높
어려워진다
##리필
명산
건의안
몰카
재충전
채납
##어난다
사단장
Engl
논지
마크롱
위법성
객원
전문학교
##스포츠
투르크
향료
무한리필
ㅠㅜ
##불성
증거물
박이
##사슬
##디다
2900
남중
문주
에이지
퇴거
##현주
관계사
ㆍ안
수류
조망권
기염
초간
social
집행정지
푸석
이종범
방귀
무언계
이광재
바실
반야
##스테르담
영동고속도로
일렉트릭
건배
쇼팽
자인
치는
먹혀
부정행위
게이머
부녀자
봅슬레이
확인서
몰려드
생리학
잡담
루키
월미
exp
ㆍ합
##충우
직업인
박탈감
군무
잘사
##동무
휘말려
##내티
들이밀
운반선
쿠쿠
##nt
해안가
모일
백정
후송
중대장
순손실
탕진
##vironment
미티
박종훈
MICE
불이행
준호
지서
간행물
굳어진
호이
전원주택
분지
사복
청년회
클로즈
도드라
타이트
고민거리
CPU
매끄러운
환장
유엔군
비례대표제
복원사업
브뤼셀
도려
옴니
친형
정해야
스텔라
그럽
음악제
Mac
but
해낸다
##우먼
도톰
신가
역서
다스릴
시우
쏘울
자퇴
잡채
쏟아질
인절미
III
ㆍ중ㆍ고
병무청
숨죽
최창
칠성
##자지
은행원
670
날까
오상
지드래곤
market
루카
산나물
미적
미완성
포카
실권
탈핵
제일은행
장난기
무주택자
너도나도
득세
장국
현시
어두웠
김황식
장원준
SG
##outh
달아올랐
재수생
스팅
졸지
니콜라
통수
피안
##건건
구위
노영
약체
어금니
저촉
한빛
사사건건
합정
어렵사리
무리수
종횡
청진
퍼터
sn
##ulti
누른
문질러
먹일
반한
실래요
지닐
##ipp
아랫배
아용
사물놀이
레인보우
커밍
쟁탈전
##igital
써요
쿠스
암소
##스민
양동근
##맥상통
들러리
일맥상통
##ench
이치로
신시내티
갈피
창작자
IPA
머그
전화벨
벌어들이
대판
티슈
허심
감췄
라울
지병
교도관
생도
엄벌
##난로
인텔리
쉐이크
오심
서슴없이
가려져
갑오
앞치마
용호
##명령
결정지
방음
원미
##검사
1880
2023
뒤따랐
태경
##EP
갈비찜
시음
얹혀
롯데칠성
내팽
베가
정겨운
임차료
김복
시방
요긴
잖니
아이즈
그런대로
기내식
온데
라캉
보톡스
볼모
요술
유심
임종석
정회
창동
밤잠
악착
타임즈
가려진
통지서
총대
고딕
서자
대성공
령도
비나
산자락
주리
##지배
기관사
진학률
가실
당겼
대주교
착시
Up
##개구리
##irl
선처
개척자
바베
##문트
구박
만기일
안토니오
칭기즈칸
그만뒀
비애
원광
응응
일념
##ux
윤장
프로테
달려드
배상문
산악인
변용
분규
##벤처
다녀와
건너뛰
어지럼증
밑천
시큰둥
아귀
촌락
임관
암스테르담
셰일가스
낸다고
힘썼
신용도
가로채
1916
부질없
##인권
국과수
Kar
사또
연변
이레
초여름
카멜
다다랐
##펜하겐
자타
호떡
달라이
고성장
한동
##노바
시리얼
상복
아동학
##아내리
##민정음
안국
혜화
카프카
저작권법
##불위
프리드리히
콘서트홀
도포
코펜하겐
##도니아
강동원
water
했을까
##상조
헤엄치
##에고
거릴
파랗
##ero
272
엘레
청명
오라버니
밀크티
##제르
##코스터
근방
맞아들
환생
여류
실용주의
아사다
빗장
선충
##승차
소장품
말초
제르
터스
롤러코스터
Mor
##천연
수준급
고현정
목도리
##소매
사직서
##소사
은퇴자
버려라
행방불명
김사
미우
엄한
지와
팔릴
적대감
초계
조나단
조부모
행할
모빌리티
초년생
웰스
결승선
내실화
퉁퉁
이바
페놀
포르쉐
러너
테크윈
감사원장
버무려
파드
볼리비아
포니
##라이언스
장직
국민체육진흥공단
근친
부동산업
빌트
이름값
병세
##fit
전략가
예선전
행시
##원식
훈민정음
##자스
##아닌
재선거
##읽기
##appy
BW
CNS
기거
답보
실러
##장사
상무위원
반란군
북촌
양회
체급
물밑
피소
무함마드
두둔
어지러운
살수
안진
개그콘서트
가까워졌
응접
주채
이데아
괴로워하
국학
바이스
트이
계측
놀래
더러워
전소
위도
웨이팅
기근
육중
십일월
지네
의석수
연해주
##쿠젠
들어갑니다
착실히
구리시
문대
뿔뿔
휘몰
베니
철길
##ule
법률가
이승철
한자어
eds
배기량
허허허
산입
삼천리
전분
##실현
재수사
쫓아다니
방비
번화가
인기척
브라더스
051
seoul
미궁
서울특별시
032
##here
정아
##미남
앤드류
매복
상우
##텐도
놓아주
비칠
용광
##티콘
개간
고즈
##isk
실력파
싹싹
우애
유약
world
발랐
효종
##종기
내고
어둑
함몰
##uality
건보
승무
작문
##산리
불러들이
생겨날
전라북도
발색
떨어뜨린
바오로
한용
##봉산
윤종신
권상
본심
브론
비범
뽑혀
곁들이
다나카
오트
알약
해약
구조대
글러브
리전
불패
##포화
사이판
파이브
척수
리사
조타
##수영
장혁
##ret
내팽개
시학
위업
주호영
종점
친필
여상
##퍼슨
김국
달갑
도령
불판
이자이
day
닌텐도
장시
느껴야
좋아해서
취임사
악인
토닥
스니커
로사
아셨
순화
망해
핫라인
광산업
망령
민의
추장
꾹꾹
##콰도르
305
지휘부
현격
저지를
##노버
운송인
이인제
public
State
##hel
수입액
가나안
비옥
튀니지
##고양이
257
광주시장
보헤
함석
##메이카
쿠르
정치판
기도회
랴오
저래
폐차
산기
유치장
그랜트
린드
해탈
##은사
취해서
##mt
농민군
냉동실
노여움
열무
넘어져
업인
들어간다고
허재
화폭
암반
양로
퇴폐
팔아먹
고위층
꽃미남
불자
GA
발성
뼈저리
양봉
이다
##쓴이
주사위
정병국
##alysis
꿈꿔
배워서
비뇨
야곱
##티아고
개똥
한일
와이번스
금은
##더위
##월일
##ara
넘어간다
##바스
##als
비아냥
속물
전압
통고
막다른
후학
보상비
장자연
나을
병살
점철
##LC
BSI
글쓴이
부주의
알린다
##앗간
레이디스
재고량
과중
단돈
박서
뺑소니
저만치
라딘
시프트
##젤로
Princ
모닥
실격
에콰도르
목적물
골프클럽
덮어
듀엣
존폐
지에
걷어붙
발란
모닥불
긴요
손석희
##자매
녹색당
Education
뜯어보
셜록
지리학
유지비
Economic
남정
박삼
산티아고
##안경
스테로이드
일국
처진
##ms
##감정원
ㅠㅠㅠㅠㅠㅠ
올인원
들추
루카스
잘린
단죄
송창
청아
##동네
폐막식
초급
##컬레이터
불러들여
##에이고
선유
야훼
응방
자켓
헤어나
##충우돌
레베
물증
물린
싱겁
좌충우돌
동적
진희
경제난
데리다
원진
전업주부
IFRS
샌디에이고
겸용
든다면
현인
bre
강직
초일
##une
##지부지
숭실대
흐지부지
##례문
우등
Smart
##계산서
호찌민
권순
눈보라
어구
왁스
정족
체로
냉난방
캐머런
군더
##TR
한국감정원
현대식
오락실
랜딩
빼빼
영업자
##스타인
왕좌
##혜정
에스컬레이터
##orts
배격
박스오피스
을게요
공포감
Communication
귀요미
노마
취침
벨리
어사
위정
맞춤법
낸시
중급
패인
지낸다
건너간
알파인
ㆍ성
경무
미상
윤택
희수
국가주의
블링
송은
브람
237
재료비
느릿느릿
곤지
왜소
카세
누려
자유투
신안군
록펠러
서라
세인
##ush
우러나
간헐
패트
눈알
준칙
매장량
스러워했
포만감
생과
적셔
탕감
##아차
인용문
초롱
불러일으킨
벗겨지
흐를수록
후견인
##의학
조선어
무력감
스탠다드
흐느끼
나만
당수
디어
천문학자
야야
심해질
군국주의
막힘
명성황후
독약
봉안
코란
강창
변해야
김상조
다문
빚어낸
트레일러
마초
씻겨
화음
##시대회
들꽃
북조선
커쇼
건축학
망가진
eat
원샷
SKC
##olf
4600
내저
뜯어
마쳐
응할
##irect
홍기
##ize
서투
역차별
연다고
콩팥
밀양시
따오
연보
연구개발
기차역
고지서
수술실
횡성
##경화
그만한
버립니다
섬김
포레스트
인천공항공사
비껴
페라리
##폴리
마운트
268
대방
틸러
문화제
248
입학식
내부자
완연
직제
흥덕
문경시
경시대회
저급
Fe
갑갑
여포
##HS
그만둘
이정재
over
매카
묵향
중장비
다락방
군더더기
관리직
아침밥
울진군
의창
##산면
중국식
올레길
고노
자지
소외감
통계학
카탈로그
충혈
회합
##페르
홀리데이
뿔뿔이
농악
##뢰즈
기폭제
사스
윤증
308
251
대자보
위화
자메이카
라비
FP
북풍
찌든
영변
온스
##스티누스
렌지
고려사
트레일
So
에쿠스
MK
조한
류성
서요
옮긴다
어쩌다가
히터
크리스틴
함유량
East
IQ
난조
울린다
로이드
아궁
천착
상급자
산화물
티몬
탄산수
스트로크
녹취
메웠
썰물
올겨울
신선도
담대
찰칵
HSBC
person
가둬
연타
비하인드
붙박이
태릉
통화량
4300
도마뱀
여리
원균
보호막
내동
##라이언트
기통
소하
나주시
부관
쁘띠
성상
외가
장장
##정권
손목시계
Park
날조
하교
##사원
시청각
사유지
급식소
오현
축구팀
아수라장
베인
화공
박윤
##느니
사이렌
##aper
김기현
가식
구천
윤병
이정미
니코틴
정봉주
매표소
이사국
여름날
거친다
타살
##거주
역발상
동석
##초프
공포증
속속들이
한중일
기댈
심지
##cht
등한
조셉
컵스
##렌토
자연산
클라이언트
예술제
MMF
정수리
독스
오작
특설
올라탔
나온다면
시기상조
떠돌이
빗자루
양계
임파
##eneral
241
휴전선
뒤로하
까페
신우
##자니아
프라이데이
거포
빈대
슈타인
##oom
고엽
연륜
오목
충정
Peter
공영주
니시
나잇
칼륨
##중지
군침
논점
시영
눈썰
수술비
연고지
이응
초임
혈류
##샤오핑
리차드
다오
이충
김옥균
박헌영
유제품
칼칼
##임즈
흔든
produc
불출석
손익계산서
스펀지
미룬
##노조
물리쳤
민원실
##eak
Program
암자
스스럼
비웃음
덮쳐
정개
보세
조원진
##해진
김병준
군것
일말
양화
740
덩샤오핑
물병
시노
문희상
미공개
풀려나
수채화
헌팅
난청
문고리
태만
노프
잊혀진
얼버
미켈란
진구
##탄두
기관총
소청
맥심
강제성
내원
비안
회한
##apter
잡이
참상
랜덤
문종
운치
주거비
적잖이
난국
웨슬리
차비
안전벨트
보였으나
초코파이
망연
초전
봐야겠
어떠세요
태안군
법문
법질서
안타까워했
박진감
높임
OEM
레버쿠젠
먹였
노바
서치
용법
연개소문
종지부
##자동차
바삐
벌벌
태진
##적인
##ana
##ective
놓아두
상명
##급수
부동층
군것질
At
응찰
petstagram
간만에
진면
명도
보가
##OM
이코노미
에베레스트
굴하
나프
만호
구력
메뚜기
나체
##엄마
##trol
질지
해묵
진정서
달군
등식
연성
예일
지멘스
그럴까요
들녘
269
넘보
바질
4400
960
도이
들여와
내던지
전출
##깅스
민속놀이
환급금
스니커즈
과로
단통
팽이
페스트
302
김태우
스노보드
고준
난개발
더워서
밀치
우이
철책
의료법
시전
요통
##팔이
284
전환사채
어설프
조윤선
예정일
난데없이
소세지
여교사
온열
토속
루피
수종
해악
문화전
댕댕이
##하기
##챙이
엇갈린다
몽롱
원부
하림
Theory
동업
부추겼
우스운
스완지
비쌌
쓰임새
하등
501
윤성환
김재원
산산조각
초동
타스
##ues
286
파묻혀
몰아붙이
해왔으며
레깅스
모는
살인죄
##전등
불꽃놀이
말차
쏙쏙
소운
헬레
캠벨
박영수
조수석
도제
솔깃
coffee
좌상
##몰래
sk
앨리
임씨
##하르트
이정수
철기
임태희
명망
제막
노홍철
마도
야죠
KTB
긴급조치
수묵
염전
죽도
국소
라덴
망쳐
관군
기축
조직체
수욕장
앙증
##면서
소방방
모회사
순하
CV
영제
중퇴
선지자
소도시
Best
매섭
투척
홈구장
건넌
게요
고검
속세
온돌
유두
에메
이륙
안도감
메트
드릴까요
빈번히
막차
그만둬
호소력
배불러
살까
##eck
아쉬워하
##본주의
참가국
어려워진
만듭니다
##자와
##⠀⠀⠀⠀⠀⠀
야릇
터놓
풀코스
화초
정중히
덥석
렛츠
집대성
##ering
불어났
국민학교
##아리움
하수관
말라리아
개경
도현
련관
사보
##ino
유전체
몸부림치
박홍
순사
##가죽
사골
언성
와트
찡그리
토플
KI
순창
보여도
##ple
기록원
목포시
나지완
Free
올까
아쿠아리움
마운틴
고철
순간순간
예식장
Association
닉네임
부엉이
일고
활황
프란체
대운하
승천
발자크
과당
눈짓
서민층
장모님
트립
라이너
최적화
후라이
##ental
730
일목
평전
##ulation
유물론
자궁경
상용차
암행
힘없
변장
직항
풍겼
##지책
관로
버버리
##개비
##달콤
싸이월드
아소
##이센
Eng
만리장성
적료
Company
##천면
접착제
망국
삼성엔지니어링
클레어
아랍어
각시
리커
[unused0]
[unused1]
[unused2]
[unused3]
[unused4]
[unused5]
[unused6]
[unused7]
[unused8]
[unused9]
[unused10]
[unused11]
[unused12]
[unused13]
[unused14]
[unused15]
[unused16]
[unused17]
[unused18]
[unused19]
[unused20]
[unused21]
[unused22]
[unused23]
[unused24]
[unused25]
[unused26]
[unused27]
[unused28]
[unused29]
[unused30]
[unused31]
[unused32]
[unused33]
[unused34]
[unused35]
[unused36]
[unused37]
[unused38]
[unused39]
[unused40]
[unused41]
[unused42]
[unused43]
[unused44]
[unused45]
[unused46]
[unused47]
[unused48]
[unused49]
[unused50]
[unused51]
[unused52]
[unused53]
[unused54]
[unused55]
[unused56]
[unused57]
[unused58]
[unused59]
[unused60]
[unused61]
[unused62]
[unused63]
[unused64]
[unused65]
[unused66]
[unused67]
[unused68]
[unused69]
[unused70]
[unused71]
[unused72]
[unused73]
[unused74]
[unused75]
[unused76]
[unused77]
[unused78]
[unused79]
[unused80]
[unused81]
[unused82]
[unused83]
[unused84]
[unused85]
[unused86]
[unused87]
[unused88]
[unused89]
[unused90]
[unused91]
[unused92]
[unused93]
[unused94]
[unused95]
[unused96]
[unused97]
[unused98]
[unused99]
[unused100]
[unused101]
[unused102]
[unused103]
[unused104]
[unused105]
[unused106]
[unused107]
[unused108]
[unused109]
[unused110]
[unused111]
[unused112]
[unused113]
[unused114]
[unused115]
[unused116]
[unused117]
[unused118]
[unused119]
[unused120]
[unused121]
[unused122]
[unused123]
[unused124]
[unused125]
[unused126]
[unused127]
[unused128]
[unused129]
[unused130]
[unused131]
[unused132]
[unused133]
[unused134]
[unused135]
[unused136]
[unused137]
[unused138]
[unused139]
[unused140]
[unused141]
[unused142]
[unused143]
[unused144]
[unused145]
[unused146]
[unused147]
[unused148]
[unused149]
[unused150]
[unused151]
[unused152]
[unused153]
[unused154]
[unused155]
[unused156]
[unused157]
[unused158]
[unused159]
[unused160]
[unused161]
[unused162]
[unused163]
[unused164]
[unused165]
[unused166]
[unused167]
[unused168]
[unused169]
[unused170]
[unused171]
[unused172]
[unused173]
[unused174]
[unused175]
[unused176]
[unused177]
[unused178]
[unused179]
[unused180]
[unused181]
[unused182]
[unused183]
[unused184]
[unused185]
[unused186]
[unused187]
[unused188]
[unused189]
[unused190]
[unused191]
[unused192]
[unused193]
[unused194]
[unused195]
[unused196]
[unused197]
[unused198]
[unused199]
[unused200]
[unused201]
[unused202]
[unused203]
[unused204]
[unused205]
[unused206]
[unused207]
[unused208]
[unused209]
[unused210]
[unused211]
[unused212]
[unused213]
[unused214]
[unused215]
[unused216]
[unused217]
[unused218]
[unused219]
[unused220]
[unused221]
[unused222]
[unused223]
[unused224]
[unused225]
[unused226]
[unused227]
[unused228]
[unused229]
[unused230]
[unused231]
[unused232]
[unused233]
[unused234]
[unused235]
[unused236]
[unused237]
[unused238]
[unused239]
[unused240]
[unused241]
[unused242]
[unused243]
[unused244]
[unused245]
[unused246]
[unused247]
[unused248]
[unused249]
[unused250]
[unused251]
[unused252]
[unused253]
[unused254]
[unused255]
[unused256]
[unused257]
[unused258]
[unused259]
[unused260]
[unused261]
[unused262]
[unused263]
[unused264]
[unused265]
[unused266]
[unused267]
[unused268]
[unused269]
[unused270]
[unused271]
[unused272]
[unused273]
[unused274]
[unused275]
[unused276]
[unused277]
[unused278]
[unused279]
[unused280]
[unused281]
[unused282]
[unused283]
[unused284]
[unused285]
[unused286]
[unused287]
[unused288]
[unused289]
[unused290]
[unused291]
[unused292]
[unused293]
[unused294]
[unused295]
[unused296]
[unused297]
[unused298]
[unused299]
[unused300]
[unused301]
[unused302]
[unused303]
[unused304]
[unused305]
[unused306]
[unused307]
[unused308]
[unused309]
[unused310]
[unused311]
[unused312]
[unused313]
[unused314]
[unused315]
[unused316]
[unused317]
[unused318]
[unused319]
[unused320]
[unused321]
[unused322]
[unused323]
[unused324]
[unused325]
[unused326]
[unused327]
[unused328]
[unused329]
[unused330]
[unused331]
[unused332]
[unused333]
[unused334]
[unused335]
[unused336]
[unused337]
[unused338]
[unused339]
[unused340]
[unused341]
[unused342]
[unused343]
[unused344]
[unused345]
[unused346]
[unused347]
[unused348]
[unused349]
[unused350]
[unused351]
[unused352]
[unused353]
[unused354]
[unused355]
[unused356]
[unused357]
[unused358]
[unused359]
[unused360]
[unused361]
[unused362]
[unused363]
[unused364]
[unused365]
[unused366]
[unused367]
[unused368]
[unused369]
[unused370]
[unused371]
[unused372]
[unused373]
[unused374]
[unused375]
[unused376]
[unused377]
[unused378]
[unused379]
[unused380]
[unused381]
[unused382]
[unused383]
[unused384]
[unused385]
[unused386]
[unused387]
[unused388]
[unused389]
[unused390]
[unused391]
[unused392]
[unused393]
[unused394]
[unused395]
[unused396]
[unused397]
[unused398]
[unused399]
[unused400]
[unused401]
[unused402]
[unused403]
[unused404]
[unused405]
[unused406]
[unused407]
[unused408]
[unused409]
[unused410]
[unused411]
[unused412]
[unused413]
[unused414]
[unused415]
[unused416]
[unused417]
[unused418]
[unused419]
[unused420]
[unused421]
[unused422]
[unused423]
[unused424]
[unused425]
[unused426]
[unused427]
[unused428]
[unused429]
[unused430]
[unused431]
[unused432]
[unused433]
[unused434]
[unused435]
[unused436]
[unused437]
[unused438]
[unused439]
[unused440]
[unused441]
[unused442]
[unused443]
[unused444]
[unused445]
[unused446]
[unused447]
[unused448]
[unused449]
[unused450]
[unused451]
[unused452]
[unused453]
[unused454]
[unused455]
[unused456]
[unused457]
[unused458]
[unused459]
[unused460]
[unused461]
[unused462]
[unused463]
[unused464]
[unused465]
[unused466]
[unused467]
[unused468]
[unused469]
[unused470]
[unused471]
[unused472]
[unused473]
[unused474]
[unused475]
[unused476]
[unused477]
[unused478]
[unused479]
[unused480]
[unused481]
[unused482]
[unused483]
[unused484]
[unused485]
[unused486]
[unused487]
[unused488]
[unused489]
[unused490]
[unused491]
[unused492]
[unused493]
[unused494]
[unused495]
[unused496]
[unused497]
[unused498]
[unused499]
